{
  "version": "1.0",
  "truncation": null,
  "padding": null,
  "added_tokens": [
    {
      "id": 0,
      "content": "<pad>",
      "single_word": false,
      "lstrip": false,
      "rstrip": false,
      "normalized": false,
      "special": true
    },
    {
      "id": 1,
      "content": "<bos>",
      "single_word": false,
      "lstrip": false,
      "rstrip": false,
      "normalized": false,
      "special": true
    },
    {
      "id": 2,
      "content": "<eos>",
      "single_word": false,
      "lstrip": false,
      "rstrip": false,
      "normalized": false,
      "special": true
    },
    {
      "id": 3,
      "content": "<unk>",
      "single_word": false,
      "lstrip": false,
      "rstrip": false,
      "normalized": false,
      "special": true
    },
    {
      "id": 4,
      "content": "<user>",
      "single_word": false,
      "lstrip": false,
      "rstrip": false,
      "normalized": false,
      "special": true
    },
    {
      "id": 5,
      "content": "<assistant>",
      "single_word": false,
      "lstrip": false,
      "rstrip": false,
      "normalized": false,
      "special": true
    },
    {
      "id": 6,
      "content": "<ctx>",
      "single_word": false,
      "lstrip": false,
      "rstrip": false,
      "normalized": false,
      "special": true
    }
  ],
  "normalizer": null,
  "pre_tokenizer": {
    "type": "ByteLevel",
    "add_prefix_space": false,
    "trim_offsets": true,
    "use_regex": true
  },
  "post_processor": null,
  "decoder": {
    "type": "ByteLevel",
    "add_prefix_space": true,
    "trim_offsets": true,
    "use_regex": true
  },
  "model": {
    "type": "BPE",
    "dropout": null,
    "unk_token": "<unk>",
    "continuing_subword_prefix": null,
    "end_of_word_suffix": null,
    "fuse_unk": false,
    "byte_fallback": false,
    "ignore_merges": false,
    "vocab": {
      "<pad>": 0,
      "<bos>": 1,
      "<eos>": 2,
      "<unk>": 3,
      "<user>": 4,
      "<assistant>": 5,
      "<ctx>": 6,
      "!": 7,
      "\"": 8,
      "#": 9,
      "$": 10,
      "%": 11,
      "&": 12,
      "'": 13,
      "(": 14,
      ")": 15,
      "*": 16,
      "+": 17,
      ",": 18,
      "-": 19,
      ".": 20,
      "/": 21,
      "0": 22,
      "1": 23,
      "2": 24,
      "3": 25,
      "4": 26,
      "5": 27,
      "6": 28,
      "7": 29,
      "8": 30,
      "9": 31,
      ":": 32,
      ";": 33,
      "<": 34,
      "=": 35,
      ">": 36,
      "?": 37,
      "@": 38,
      "A": 39,
      "B": 40,
      "C": 41,
      "D": 42,
      "E": 43,
      "F": 44,
      "G": 45,
      "H": 46,
      "I": 47,
      "J": 48,
      "K": 49,
      "L": 50,
      "M": 51,
      "N": 52,
      "O": 53,
      "P": 54,
      "Q": 55,
      "R": 56,
      "S": 57,
      "T": 58,
      "U": 59,
      "V": 60,
      "W": 61,
      "X": 62,
      "Y": 63,
      "Z": 64,
      "[": 65,
      "\\": 66,
      "]": 67,
      "^": 68,
      "_": 69,
      "`": 70,
      "a": 71,
      "b": 72,
      "c": 73,
      "d": 74,
      "e": 75,
      "f": 76,
      "g": 77,
      "h": 78,
      "i": 79,
      "j": 80,
      "k": 81,
      "l": 82,
      "m": 83,
      "n": 84,
      "o": 85,
      "p": 86,
      "q": 87,
      "r": 88,
      "s": 89,
      "t": 90,
      "u": 91,
      "v": 92,
      "w": 93,
      "x": 94,
      "y": 95,
      "z": 96,
      "{": 97,
      "|": 98,
      "}": 99,
      "~": 100,
      "¡": 101,
      "¢": 102,
      "£": 103,
      "¤": 104,
      "¥": 105,
      "¦": 106,
      "§": 107,
      "¨": 108,
      "©": 109,
      "ª": 110,
      "«": 111,
      "¬": 112,
      "®": 113,
      "¯": 114,
      "°": 115,
      "±": 116,
      "²": 117,
      "³": 118,
      "´": 119,
      "µ": 120,
      "¶": 121,
      "·": 122,
      "¸": 123,
      "¹": 124,
      "º": 125,
      "»": 126,
      "¼": 127,
      "½": 128,
      "¾": 129,
      "¿": 130,
      "Â": 131,
      "Ã": 132,
      "Ä": 133,
      "Å": 134,
      "Æ": 135,
      "Ç": 136,
      "È": 137,
      "É": 138,
      "Ê": 139,
      "Ë": 140,
      "Ì": 141,
      "Í": 142,
      "Î": 143,
      "Ï": 144,
      "Ð": 145,
      "Ñ": 146,
      "Ö": 147,
      "×": 148,
      "Ø": 149,
      "Ù": 150,
      "Ú": 151,
      "Û": 152,
      "à": 153,
      "á": 154,
      "â": 155,
      "ã": 156,
      "ä": 157,
      "å": 158,
      "æ": 159,
      "ç": 160,
      "è": 161,
      "é": 162,
      "ê": 163,
      "ë": 164,
      "ì": 165,
      "í": 166,
      "ï": 167,
      "ð": 168,
      "ĉ": 169,
      "Ċ": 170,
      "č": 171,
      "Ę": 172,
      "ę": 173,
      "Ġ": 174,
      "Ģ": 175,
      "ģ": 176,
      "Ĥ": 177,
      "ĥ": 178,
      "Ħ": 179,
      "ħ": 180,
      "Ĩ": 181,
      "ĩ": 182,
      "Ī": 183,
      "ī": 184,
      "Ĭ": 185,
      "ĭ": 186,
      "Į": 187,
      "į": 188,
      "İ": 189,
      "ı": 190,
      "Ĳ": 191,
      "ĳ": 192,
      "Ĵ": 193,
      "ĵ": 194,
      "Ķ": 195,
      "ķ": 196,
      "ĸ": 197,
      "Ĺ": 198,
      "ĺ": 199,
      "Ļ": 200,
      "ļ": 201,
      "Ľ": 202,
      "ľ": 203,
      "Ŀ": 204,
      "ŀ": 205,
      "Ł": 206,
      "ł": 207,
      "Ń": 208,
      "es": 209,
      "Ġd": 210,
      "Ã©": 211,
      "Ġl": 212,
      "Ġp": 213,
      "en": 214,
      "on": 215,
      "ou": 216,
      "Ġc": 217,
      "er": 218,
      "ti": 219,
      "Ġs": 220,
      "Ġde": 221,
      "re": 222,
      "qu": 223,
      "an": 224,
      "is": 225,
      "Ġa": 226,
      "ent": 227,
      "in": 228,
      "le": 229,
      "Ġe": 230,
      "un": 231,
      "ĠĠ": 232,
      "it": 233,
      "Ġt": 234,
      "Ġm": 235,
      "our": 236,
      "Ġun": 237,
      "Ġqu": 238,
      "Ġv": 239,
      "Ġla": 240,
      "or": 241,
      "Ġet": 242,
      "eu": 243,
      "tion": 244,
      "ar": 245,
      "Ġles": 246,
      "om": 247,
      "Ġf": 248,
      "Ġn": 249,
      "ĠÃ": 250,
      "ra": 251,
      "ment": 252,
      "el": 253,
      "il": 254,
      "us": 255,
      "Ġdes": 256,
      "ant": 257,
      "rÃ©": 258,
      "est": 259,
      "Ġle": 260,
      "ous": 261,
      "Ġpour": 262,
      "te": 263,
      "Ġen": 264,
      "Ã¨": 265,
      "ĠÃł": 266,
      "ĠÃ©": 267,
      "ro": 268,
      "al": 269,
      "ic": 270,
      "ĠĠĠĠ": 271,
      "me": 272,
      "Ġest": 273,
      "tre": 274,
      "ur": 275,
      "as": 276,
      "Ġune": 277,
      "ans": 278,
      "que": 279,
      "ce": 280,
      "ons": 281,
      "au": 282,
      "Ġb": 283,
      "ation": 284,
      "ve": 285,
      "Ġque": 286,
      "Ġcom": 287,
      "ir": 288,
      "mp": 289,
      "eur": 290,
      "ri": 291,
      "ta": 292,
      "ĠP": 293,
      "ĠdÃ©": 294,
      "onn": 295,
      "ont": 296,
      "ĠL": 297,
      "ch": 298,
      "Ġpl": 299,
      "li": 300,
      "Ġg": 301,
      "ĠC": 302,
      "se": 303,
      "Ġau": 304,
      "ire": 305,
      "Ġin": 306,
      "Ġqui": 307,
      "Ġx": 308,
      "de": 309,
      "Ġch": 310,
      "at": 311,
      "res": 312,
      "ag": 313,
      "ĠrÃ©": 314,
      "Ġpar": 315,
      "til": 316,
      "Ġvous": 317,
      "si": 318,
      "les": 319,
      "Ġj": 320,
      "Ġsi": 321,
      "Ġpeu": 322,
      "Ġdans": 323,
      "Ġpro": 324,
      "Ġou": 325,
      "tilis": 326,
      "Ġdu": 327,
      "tÃ©": 328,
      "du": 329,
      "ac": 330,
      "ff": 331,
      "utilis": 332,
      "ais": 333,
      "et": 334,
      "ren": 335,
      "Ġex": 336,
      "Ġvo": 337,
      "Ġre": 338,
      "ĠS": 339,
      "Ġpas": 340,
      "iv": 341,
      "pp": 342,
      "ie": 343,
      "ers": 344,
      "ol": 345,
      "out": 346,
      "Ġplus": 347,
      "itÃ©": 348,
      "Ġsu": 349,
      "ci": 350,
      "ĠE": 351,
      "ouv": 352,
      "Ġ?": 353,
      "user": 354,
      "Ġsur": 355,
      "Ġutilis": 356,
      "Ġmo": 357,
      "Ã©es": 358,
      "id": 359,
      "ne": 360,
      "Ġcon": 361,
      "lement": 362,
      "ªtre": 363,
      "Ġ\"": 364,
      "Ġ-": 365,
      "ques": 366,
      "Ġ1": 367,
      "ction": 368,
      "ble": 369,
      "Ġpo": 370,
      "Ġfa": 371,
      "Ã©e": 372,
      "Ġcomp": 373,
      "ces": 374,
      "Ġpeut": 375,
      "ul": 376,
      "ct": 377,
      "Ġr": 378,
      "ĠÃªtre": 379,
      "ure": 380,
      "Ġ:": 381,
      "ĠI": 382,
      "Ġo": 383,
      "Ġ(": 384,
      "elle": 385,
      "Ġi": 386,
      "di": 387,
      "Ġh": 388,
      "Ġil": 389,
      "ĠD": 390,
      "eurs": 391,
      "Ġave": 392,
      "ter": 393,
      "ez": 394,
      "ts": 395,
      "Ġtout": 396,
      "Ġsont": 397,
      "ĠPour": 398,
      "Ġse": 399,
      "Ġne": 400,
      "ĠprÃ©": 401,
      "age": 402,
      "Ã©r": 403,
      "emp": 404,
      "Ġce": 405,
      "ĠĠĠĠĠĠĠĠ": 406,
      "Ã¨re": 407,
      "ig": 408,
      "ors": 409,
      "ĠA": 410,
      "Ġdonn": 411,
      "Ã©s": 412,
      "Ġ=": 413,
      "Ãª": 414,
      "orm": 415,
      "ouve": 416,
      "st": 417,
      "Ġal": 418,
      "av": 419,
      "ort": 420,
      "--": 421,
      "Ġcons": 422,
      "Ġavec": 423,
      "Ġcomme": 424,
      "Ġ2": 425,
      "Ġtr": 426,
      "aux": 427,
      "pe": 428,
      "ati": 429,
      "ain": 430,
      "dre": 431,
      "ten": 432,
      "Ġav": 433,
      "Ġy": 434,
      "Ġvotre": 435,
      "ĠIl": 436,
      "Ġnom": 437,
      "ang": 438,
      "ĠJ": 439,
      "and": 440,
      "Ġimp": 441,
      "ĠÃ©ta": 442,
      "ique": 443,
      "Ã©n": 444,
      "ĠQ": 445,
      "oi": 446,
      "os": 447,
      "ĠEn": 448,
      "Ġdi": 449,
      "mes": 450,
      "ite": 451,
      "ale": 452,
      "ĠR": 453,
      "th": 454,
      "ations": 455,
      "ĠT": 456,
      "Ġnous": 457,
      "ins": 458,
      "Ġco": 459,
      "ĠM": 460,
      "Ġtra": 461,
      "ab": 462,
      "og": 463,
      "ĠLes": 464,
      "ĠV": 465,
      "Ġra": 466,
      "end": 467,
      "um": 468,
      "ris": 469,
      "tif": 470,
      "am": 471,
      "tes": 472,
      "ici": 473,
      "lÃ©": 474,
      "ens": 475,
      "ĠdÃ©du": 476,
      "Ġfon": 477,
      "ille": 478,
      "bre": 479,
      "ĠdonnÃ©es": 480,
      "Ġ<": 481,
      "oir": 482,
      "ux": 483,
      "Ã¨s": 484,
      "Ġent": 485,
      "vent": 486,
      "Ġpers": 487,
      "ex": 488,
      "ance": 489,
      "fÃ©": 490,
      "iste": 491,
      "aire": 492,
      "ela": 493,
      "ĠLa": 494,
      "ier": 495,
      "ĠmÃ©": 496,
      "antes": 497,
      "Ġapp": 498,
      "une": 499,
      "Ġsuiv": 500,
      "pÃ©": 501,
      "Ġtous": 502,
      "ay": 503,
      "ments": 504,
      "Ġpersonn": 505,
      "elles": 506,
      "tres": 507,
      "alement": 508,
      "ĠU": 509,
      "Ġcar": 510,
      "oc": 511,
      "iss": 512,
      ").": 513,
      "Ġdiff": 514,
      "ouvez": 515,
      "Ġcha": 516,
      "iques": 517,
      "Ġper": 518,
      "air": 519,
      "Ġpeuvent": 520,
      "Ġ3": 521,
      "Ġ|": 522,
      "Ġso": 523,
      "Ġfonction": 524,
      "ĠLe": 525,
      "ai": 526,
      "pl": 527,
      "che": 528,
      "ap": 529,
      "ents": 530,
      "00": 531,
      "ouvons": 532,
      "ait": 533,
      "ĠÃ©g": 534,
      "Ġalors": 535,
      "eux": 536,
      "ois": 537,
      "ĠN": 538,
      "Ã©c": 539,
      "ence": 540,
      "els": 541,
      "Ġmais": 542,
      "im": 543,
      "ette": 544,
      "able": 545,
      "ist": 546,
      "Ġparti": 547,
      "ue": 548,
      "fÃ©ren": 549,
      "Ġpu": 550,
      "tions": 551,
      "bl": 552,
      "Ġan": 553,
      "Ġont": 554,
      "ss": 555,
      "ĠcrÃ©": 556,
      "tr": 557,
      "ph": 558,
      "Ġfait": 559,
      "Ġ->": 560,
      "ĠSi": 561,
      "form": 562,
      "Ġcomm": 563,
      "Ġfor": 564,
      "min": 565,
      "Ã¨me": 566,
      "``": 567,
      "ĠÃ©galement": 568,
      "Ã©ra": 569,
      "Ġnombre": 570,
      "Ġaux": 571,
      "eau": 572,
      "ace": 573,
      "pli": 574,
      "ord": 575,
      "Ġser": 576,
      "ine": 577,
      "Ġleur": 578,
      "ut": 579,
      "Ã®": 580,
      "ils": 581,
      "ion": 582,
      "Ã´": 583,
      "cl": 584,
      "ge": 585,
      "ien": 586,
      "ot": 587,
      "ourn": 588,
      "Ġpouvez": 589,
      "ĠB": 590,
      "ess": 591,
      "Ġentre": 592,
      "Ġar": 593,
      "Ġimport": 594,
      "ants": 595,
      "onne": 596,
      "Ġpouvons": 597,
      "Ġph": 598,
      "if": 599,
      "aires": 600,
      "Ġtemp": 601,
      "Ġpr": 602,
      "Ġgr": 603,
      "Ġans": 604,
      "ĠrÃ©s": 605,
      "Ġmon": 606,
      "fin": 607,
      "Ġchaque": 608,
      "onc": 609,
      "Ġseu": 610,
      "Ġ5": 611,
      "Ġcin": 612,
      "Ġexemp": 613,
      "ĠÃ©c": 614,
      "Ġdev": 615,
      "iÃ¨re": 616,
      "ich": 617,
      "ĠrÃ©p": 618,
      "sion": 619,
      "Ġ4": 620,
      "ĠÂ": 621,
      "rendre": 622,
      "ill": 623,
      "ĠF": 624,
      "Ġprodu": 625,
      "----": 626,
      "Ã¨g": 627,
      "Ġdeux": 628,
      "Ã©ri": 629,
      "act": 630,
      "ĠQu": 631,
      "Ġac": 632,
      "ĠgÃ©n": 633,
      "Ġsy": 634,
      "lle": 635,
      "Ġcinq": 636,
      "tra": 637,
      "ad": 638,
      "Ġcl": 639,
      "Ġvi": 640,
      "ing": 641,
      "Ġob": 642,
      "ante": 643,
      "tu": 644,
      "ours": 645,
      "Ġcode": 646,
      "Ġces": 647,
      "Ġje": 648,
      "10": 649,
      "tique": 650,
      "ĠdÃ©duire": 651,
      "po": 652,
      "cess": 653,
      "Ġcont": 654,
      "Ġquel": 655,
      "Ġdis": 656,
      "Ġam": 657,
      "Ġson": 658,
      "Ġeff": 659,
      "ĠrÃ¨g": 660,
      "Ã§": 661,
      "ĠÃ©tait": 662,
      "ouver": 663,
      "Ġ,": 664,
      "Ġexemple": 665,
      "\",": 666,
      "fÃ©rence": 667,
      "tin": 668,
      "tionn": 669,
      "dic": 670,
      "Ġmar": 671,
      "plique": 672,
      "ĠG": 673,
      "all": 674,
      "Ãªme": 675,
      "Ġdo": 676,
      "gn": 677,
      "Ġtrav": 678,
      "Ġcela": 679,
      "endant": 680,
      "Ġno": 681,
      "avais": 682,
      "Ġat": 683,
      "Ġ.": 684,
      "Ġcette": 685,
      "app": 686,
      "ication": 687,
      "enti": 688,
      "ves": 689,
      "Ġfaire": 690,
      "int": 691,
      "ĠW": 692,
      "Ġcor": 693,
      "ages": 694,
      "ient": 695,
      "Ã©rer": 696,
      "ĠCom": 697,
      "Ġth": 698,
      "cu": 699,
      "Ġutiliser": 700,
      "ĠdÃ©c": 701,
      "its": 702,
      "ser": 703,
      "ĠEx": 704,
      "ĠdiffÃ©r": 705,
      "Ġmoins": 706,
      "ond": 707,
      "Ġbas": 708,
      "ard": 709,
      "alis": 710,
      "Ã©g": 711,
      "Ġcer": 712,
      "oy": 713,
      "Ġres": 714,
      "Ġz": 715,
      "ib": 716,
      "met": 717,
      "Ġ*": 718,
      "Ã¢": 719,
      "sent": 720,
      "vous": 721,
      "oup": 722,
      "Ġdonc": 723,
      "Ã»": 724,
      "cher": 725,
      "Ġtemps": 726,
      "ande": 727,
      "Ġfourn": 728,
      "rait": 729,
      "par": 730,
      "Ġjou": 731,
      "quoi": 732,
      "Ġ{": 733,
      "Ġutilisant": 734,
      "ide": 735,
      "ver": 736,
      "ĠÃ©tÃ©": 737,
      "Ã©li": 738,
      "ign": 739,
      "Ġman": 740,
      "ures": 741,
      "jet": 742,
      "Ġaj": 743,
      "Ġme": 744,
      "ivers": 745,
      "rit": 746,
      "tiques": 747,
      "ĠPar": 748,
      "je": 749,
      "Ġform": 750,
      "Ġsuivantes": 751,
      "Ġfin": 752,
      "urs": 753,
      "Ġter": 754,
      "Ġvos": 755,
      "quer": 756,
      "alitÃ©": 757,
      "ĠrÃ¨gle": 758,
      "Ġimportant": 759,
      "ob": 760,
      "Ġmod": 761,
      "Ġsa": 762,
      "ies": 763,
      "ĠÃī": 764,
      "ĠdÃ©duit": 765,
      "Ġte": 766,
      "ĠDe": 767,
      "aly": 768,
      "ram": 769,
      "ĠCe": 770,
      "ong": 771,
      "Ġexiste": 772,
      "sez": 773,
      "olog": 774,
      "pris": 775,
      "Ġcol": 776,
      "Ġtrans": 777,
      "Ġpos": 778,
      "infÃ©rence": 779,
      "oule": 780,
      "Ġcli": 781,
      "Ã¨res": 782,
      "Ġ+": 783,
      "Ã©qu": 784,
      "Ġpre": 785,
      "Ġca": 786,
      "ui": 787,
      "Ġtrava": 788,
      "cul": 789,
      "Ġ}": 790,
      "ider": 791,
      "ĠCela": 792,
      "ateur": 793,
      "ales": 794,
      "uer": 795,
      "ate": 796,
      "chn": 797,
      "),": 798,
      "ĠmÃªme": 799,
      "Ġprop": 800,
      "ĠJe": 801,
      "11": 802,
      "Ġtou": 803,
      "ĠÃ©v": 804,
      "ĠVous": 805,
      "Ġst": 806,
      "Ġsign": 807,
      "Ġaut": 808,
      "ĠspÃ©": 809,
      "Ġren": 810,
      "âĢ": 811,
      "Ġlors": 812,
      "entif": 813,
      "Ġ~": 814,
      "ru": 815,
      "co": 816,
      "oire": 817,
      "ĠspÃ©ci": 818,
      "Ġtechn": 819,
      "Ãł": 820,
      "Ġleurs": 821,
      "autres": 822,
      "Ġcour": 823,
      "omme": 824,
      "entes": 825,
      "Ġvia": 826,
      "Ġpermet": 827,
      "12": 828,
      "Ġcerta": 829,
      "orte": 830,
      "Ġw": 831,
      "ĠH": 832,
      "```": 833,
      "vez": 834,
      "ĠÃ©le": 835,
      "Ġinform": 836,
      "ĠrÃ©g": 837,
      "Ġvale": 838,
      "ats": 839,
      "ĠrÃ©pons": 840,
      "tiv": 841,
      "ĠcrÃ©er": 842,
      "Ġli": 843,
      "ution": 844,
      "Ġcap": 845,
      "Ġ/": 846,
      "ines": 847,
      "Ġfois": 848,
      "sem": 849,
      "ture": 850,
      "cer": 851,
      "Ġprog": 852,
      "Ġ```": 853,
      "ĠO": 854,
      "Ġ6": 855,
      "Ġma": 856,
      "ass": 857,
      "Ġses": 858,
      "Ġavoir": 859,
      "Ġcomment": 860,
      "ose": 861,
      "Ġnouve": 862,
      "Ġsou": 863,
      "Ġenv": 864,
      "omm": 865,
      "ari": 866,
      "Ġid": 867,
      "Ġsyst": 868,
      "Ġavant": 869,
      "ange": 870,
      "Ġsol": 871,
      "opp": 872,
      "esp": 873,
      "Ġtable": 874,
      "Ġcal": 875,
      "ĠgÃ©nÃ©ra": 876,
      "mpl": 877,
      ");": 878,
      "yle": 879,
      "Ġpossi": 880,
      "Ġtro": 881,
      "Ġphra": 882,
      "aut": 883,
      "Ġaider": 884,
      "Ġor": 885,
      "ĠnÃ©": 886,
      "Ġpay": 887,
      "ĠExplique": 888,
      "Ġmes": 889,
      "Ġsoci": 890,
      "Ġ[": 891,
      "des": 892,
      "Ġprem": 893,
      "vel": 894,
      "rer": 895,
      "tats": 896,
      "ner": 897,
      "Ġpersonnes": 898,
      "Ġajout": 899,
      "mis": 900,
      "rÃ©e": 901,
      "ilitÃ©": 902,
      "Ã¹": 903,
      "Ġprobl": 904,
      "Ġpri": 905,
      "uis": 906,
      "Ġnon": 907,
      "ĠÃ©tape": 908,
      "ĠrÃ©ponse": 909,
      "ice": 910,
      "Ġils": 911,
      "pes": 912,
      "atique": 913,
      "lu": 914,
      "Ġrec": 915,
      "tÃ©g": 916,
      "Ġelle": 917,
      "imp": 918,
      "Ġpe": 919,
      "dis": 920,
      "Ã©tÃ©": 921,
      "ven": 922,
      "Ġ10": 923,
      "iter": 924,
      "ĠnÃ©cess": 925,
      "Ġgra": 926,
      "cÃ©": 927,
      "insi": 928,
      "rez": 929,
      "velopp": 930,
      "pr": 931,
      "ĠComment": 932,
      "Ġavez": 933,
      "Ġ$": 934,
      "ĠÂ«": 935,
      "Ġinter": 936,
      "Ġseulement": 937,
      "ditionn": 938,
      "Ġva": 939,
      "enn": 940,
      "Ã¨mes": 941,
      "Ġrep": 942,
      "ances": 943,
      "Ġconn": 944,
      "Ġlong": 945,
      "cep": 946,
      "{\\": 947,
      "Ġmain": 948,
      "eso": 949,
      "igne": 950,
      "arg": 951,
      "Ġmat": 952,
      "âĢĻ": 953,
      "ĠVo": 954,
      "bles": 955,
      "Ġty": 956,
      "Ġbeso": 957,
      "ente": 958,
      "quel": 959,
      "Ġ'": 960,
      "Ġti": 961,
      "ĠCh": 962,
      "Ġaff": 963,
      "Ġsignif": 964,
      "Ġserv": 965,
      "Ġprogram": 966,
      "tis": 967,
      "tenti": 968,
      "Ġad": 969,
      "ĠoÃ¹": 970,
      "onom": 971,
      "Ġprof": 972,
      "Ġtels": 973,
      "Ġpuis": 974,
      "aine": 975,
      "orer": 976,
      "Ġdoit": 977,
      "Ġinf": 978,
      "ites": 979,
      "Ġ!": 980,
      "bres": 981,
      "Ġbien": 982,
      "Ġsous": 983,
      "su": 984,
      "itÃ©s": 985,
      "Ġ0": 986,
      "ĠÂ»": 987,
      "ateurs": 988,
      "ches": 989,
      "ĠEnfin": 990,
      "play": 991,
      "Ġjus": 992,
      "tru": 993,
      "ĠspÃ©cif": 994,
      "Ġvis": 995,
      "Ġpartir": 996,
      "ĠDans": 997,
      "ith": 998,
      "Ġhy": 999,
      "Ġrest": 1000,
      "Ġliste": 1001,
      "style": 1002,
      "cip": 1003,
      "ĠdÃ©velopp": 1004,
      "Ãªte": 1005,
      "Ã©m": 1006,
      "Ġcommun": 1007,
      "Ġcompte": 1008,
      "Ġvie": 1009,
      "ussi": 1010,
      "Ġlequel": 1011,
      "aÃ®": 1012,
      "display": 1013,
      "Ġphrase": 1014,
      "tic": 1015,
      "displaystyle": 1016,
      "Ġfournir": 1017,
      "Ġfil": 1018,
      "Ġcas": 1019,
      "pÃ©ri": 1020,
      "Ġ<-": 1021,
      "ĠmodÃ¨": 1022,
      "Ġmin": 1023,
      "13": 1024,
      "estion": 1025,
      "semble": 1026,
      "ode": 1027,
      "ĠPourquoi": 1028,
      "Ġsimp": 1029,
      "ĠdÃ©p": 1030,
      "ables": 1031,
      "tifs": 1032,
      "cri": 1033,
      "ise": 1034,
      "tement": 1035,
      "ctions": 1036,
      "itu": 1037,
      "ĠtrÃ¨s": 1038,
      "Ġop": 1039,
      "ĠCons": 1040,
      "Ġrais": 1041,
      "onnement": 1042,
      "pendant": 1043,
      "ĠutilisÃ©e": 1044,
      "Ġmot": 1045,
      "Ġass": 1046,
      "one": 1047,
      "Ġlet": 1048,
      "Ġinformations": 1049,
      "anti": 1050,
      "lex": 1051,
      "Ġunivers": 1052,
      "Ġlog": 1053,
      "ieurs": 1054,
      "Ġbeau": 1055,
      "op": 1056,
      "rend": 1057,
      "ctu": 1058,
      "Ġfac": 1059,
      "Ġplan": 1060,
      "Ġconst": 1061,
      "ĠmaniÃ¨re": 1062,
      "Ġsupp": 1063,
      "lÃ©ment": 1064,
      "Ġ7": 1065,
      "Ġentrepris": 1066,
      "Ġess": 1067,
      "erg": 1068,
      "Ġliv": 1069,
      "fÃ©rences": 1070,
      "Un": 1071,
      "Ġ8": 1072,
      "ature": 1073,
      "Ġ20": 1074,
      "Ġpossible": 1075,
      "ĠsystÃ¨me": 1076,
      "Ġ#": 1077,
      "Ġincl": 1078,
      "Ġver": 1079,
      "Ġvaleur": 1080,
      "Åĵ": 1081,
      "Ġsouv": 1082,
      "Ġdire": 1083,
      "Ġbase": 1084,
      "Ġlang": 1085,
      "ĠrÃ©du": 1086,
      "ĠrÃ©sul": 1087,
      "eure": 1088,
      "ĠIn": 1089,
      "ditionnelle": 1090,
      "Ġvoit": 1091,
      "oute": 1092,
      "idÃ©": 1093,
      "Ġconf": 1094,
      "Ġsans": 1095,
      "Ġplusieurs": 1096,
      "ock": 1097,
      "ĠĠĠĠĠĠ": 1098,
      "Ġseule": 1099,
      "Ãªtre": 1100,
      "Ġim": 1101,
      "dit": 1102,
      "Ġautres": 1103,
      "Ġtelles": 1104,
      "ile": 1105,
      "--------": 1106,
      "poth": 1107,
      "Ġmal": 1108,
      "ression": 1109,
      "Ġsuis": 1110,
      "Ġpersonne": 1111,
      "Ġta": 1112,
      "nement": 1113,
      "Ġnouveaux": 1114,
      "Ġrap": 1115,
      "Ġvari": 1116,
      "Ġmonde": 1117,
      "lÃ¨": 1118,
      "icon": 1119,
      "Ġdem": 1120,
      "Ġrecher": 1121,
      "Ġpeti": 1122,
      "ĠfaÃ§": 1123,
      "\":": 1124,
      "Ġtrouver": 1125,
      "per": 1126,
      "Ġmots": 1127,
      "isses": 1128,
      "ĠmÃ©th": 1129,
      "entre": 1130,
      "Ġmoy": 1131,
      "antÃ©": 1132,
      "ellement": 1133,
      "14": 1134,
      "ata": 1135,
      "gor": 1136,
      "Ġfact": 1137,
      "Ġprendre": 1138,
      "ler": 1139,
      "urer": 1140,
      "rib": 1141,
      "tiss": 1142,
      "prÃ¨s": 1143,
      "ions": 1144,
      "ĠVoici": 1145,
      "Ġpays": 1146,
      "ses": 1147,
      "tat": 1148,
      "mination": 1149,
      "coup": 1150,
      "Ġligne": 1151,
      "Ġbicon": 1152,
      "Ġainsi": 1153,
      "Le": 1154,
      "Ġbiconditionnelle": 1155,
      "Ġappro": 1156,
      "Ġ<->": 1157,
      "pul": 1158,
      "tenir": 1159,
      "aient": 1160,
      "alyse": 1161,
      "Ġhypoth": 1162,
      "Ġcalcul": 1163,
      "nous": 1164,
      "ps": 1165,
      "Ġautre": 1166,
      "ision": 1167,
      "ĠCependant": 1168,
      "ĠsantÃ©": 1169,
      "ĠUne": 1170,
      "Ġgens": 1171,
      "ues": 1172,
      "ĠprÃ©dic": 1173,
      "gment": 1174,
      "Ġni": 1175,
      "tÃ©s": 1176,
      "Ġsoit": 1177,
      "Ġtex": 1178,
      "iser": 1179,
      "Ġpourrait": 1180,
      "Ġgrand": 1181,
      "Ġchose": 1182,
      "Ġpendant": 1183,
      "Ġprin": 1184,
      "ĠÃ©qu": 1185,
      "ĠprÃ©m": 1186,
      "tive": 1187,
      "Ġmet": 1188,
      "enne": 1189,
      "Ġeffic": 1190,
      "jec": 1191,
      "tag": 1192,
      "ĠprÃ©misses": 1193,
      "Ġcro": 1194,
      "ration": 1195,
      "ron": 1196,
      "ĠutilisÃ©": 1197,
      "Ġjeu": 1198,
      "Ã©cur": 1199,
      "Ã©lÃ©": 1200,
      "Ġas": 1201,
      "Ġtoutes": 1202,
      "Ġoff": 1203,
      "ĠcoÃ»": 1204,
      "Ġtrois": 1205,
      "asse": 1206,
      "ole": 1207,
      "ĠsÃ©": 1208,
      "gan": 1209,
      "ĠĠĠĠĠĠĠĠĠĠĠĠ": 1210,
      "orant": 1211,
      "Ġsouvent": 1212,
      "utilisation": 1213,
      "suite": 1214,
      "lig": 1215,
      "Ġind": 1216,
      "Ġcomb": 1217,
      "Ġbeaucoup": 1218,
      "Ġpoin": 1219,
      "ĠdiffÃ©rents": 1220,
      "Ġrapide": 1221,
      "ĠdiffÃ©rentes": 1222,
      "moi": 1223,
      "Ġforall": 1224,
      "eb": 1225,
      "enir": 1226,
      "gorith": 1227,
      "Ġprocess": 1228,
      "Ġenvir": 1229,
      "Ġmus": 1230,
      "Ġtravail": 1231,
      "be": 1232,
      "Ġacc": 1233,
      "ĠamÃ©li": 1234,
      "Ġsem": 1235,
      "od": 1236,
      "tant": 1237,
      "Pour": 1238,
      "Ġcontre": 1239,
      "</": 1240,
      "ĠsÃ©cur": 1241,
      "Ġnouv": 1242,
      "aÃ®t": 1243,
      "crip": 1244,
      "oll": 1245,
      "blic": 1246,
      "Ġdont": 1247,
      "core": 1248,
      "Ġuniverselle": 1249,
      "Ġnature": 1250,
      "Ã¨ses": 1251,
      "rÃ©s": 1252,
      "Ġcul": 1253,
      "ivent": 1254,
      "Ġhum": 1255,
      "(\"": 1256,
      "Ġempl": 1257,
      "ĠUn": 1258,
      "La": 1259,
      "Ġtableau": 1260,
      "ieux": 1261,
      "Ġfra": 1262,
      "anger": 1263,
      "idÃ©r": 1264,
      "Ãªt": 1265,
      "Ġbesoin": 1266,
      "ĠprÃ©c": 1267,
      "ĠÃ©lect": 1268,
      "jours": 1269,
      "Ġ9": 1270,
      "Ġmil": 1271,
      "termin": 1272,
      "\".": 1273,
      "Ã©ta": 1274,
      "Ġann": 1275,
      "euille": 1276,
      "rÃ©sent": 1277,
      "()": 1278,
      "Ġproduit": 1279,
      "Ġrapp": 1280,
      "use": 1281,
      "are": 1282,
      "ications": 1283,
      "ĠhypothÃ¨ses": 1284,
      "Ġcomprendre": 1285,
      "Ġro": 1286,
      "agn": 1287,
      "Ġtoujours": 1288,
      "Ġsav": 1289,
      "Ġtechnolog": 1290,
      "ect": 1291,
      "chÃ©": 1292,
      "ind": 1293,
      "ern": 1294,
      "mb": 1295,
      "yth": 1296,
      "mer": 1297,
      "Ġpoli": 1298,
      "Ġaussi": 1299,
      "pri": 1300,
      "veau": 1301,
      "ĠdÃ©f": 1302,
      "Ġint": 1303,
      "Ġajoutent": 1304,
      "Ġdiv": 1305,
      "ences": 1306,
      "Ġpi": 1307,
      "Ġu": 1308,
      "Ġcondu": 1309,
      "Ġconstantes": 1310,
      "idÃ©rons": 1311,
      "era": 1312,
      "anc": 1313,
      "Ġinc": 1314,
      "Ġ19": 1315,
      "ĠCette": 1316,
      "ule": 1317,
      "Ġpourquoi": 1318,
      "Ġnu": 1319,
      "ĠConsidÃ©rons": 1320,
      "Ġret": 1321,
      "ible": 1322,
      "Ġpublic": 1323,
      "Ġab": 1324,
      "ĠinfÃ©rences": 1325,
      "ĠprÃ©sent": 1326,
      "ĠprÃ©dicats": 1327,
      "15": 1328,
      "ignorant": 1329,
      "Ġprix": 1330,
      "illes": 1331,
      "Ġquelques": 1332,
      "Ġprocessus": 1333,
      "tÃ©ri": 1334,
      "Ġrel": 1335,
      "Ġbl": 1336,
      "Ġpotenti": 1337,
      "tex": 1338,
      "Ġvoiture": 1339,
      "iers": 1340,
      "Ġq": 1341,
      "ctx": 1342,
      "Ġsour": 1343,
      "Il": 1344,
      "ĠfaÃ§on": 1345,
      "Ġexplique": 1346,
      "ĠĠĠĠĠĠĠĠĠĠĠĠĠĠĠĠ": 1347,
      "ĠgÃ©nÃ©ralement": 1348,
      "Ġ//": 1349,
      "Ġcomplex": 1350,
      "Ġstock": 1351,
      "iez": 1352,
      "ĠreprÃ©sent": 1353,
      "ĠplaÃ®t": 1354,
      "ĠK": 1355,
      "ices": 1356,
      "acitÃ©": 1357,
      "Ġpoints": 1358,
      "Ġjoue": 1359,
      "ets": 1360,
      "itement": 1361,
      "000": 1362,
      "otal": 1363,
      "Ġpopul": 1364,
      "cent": 1365,
      "Ġsignifie": 1366,
      "Ġmeille": 1367,
      "Ġcoule": 1368,
      "ach": 1369,
      "lles": 1370,
      "..": 1371,
      "Ġvra": 1372,
      "iti": 1373,
      "Ġnotre": 1374,
      "ĠthÃ©": 1375,
      "tissage": 1376,
      "rentissage": 1377,
      "Ġ`": 1378,
      "raient": 1379,
      "Ġlorsque": 1380,
      "ĠIls": 1381,
      "raÃ®": 1382,
      "ĠmodÃ¨le": 1383,
      "Ġprincip": 1384,
      "mment": 1385,
      "Ġtype": 1386,
      "ow": 1387,
      "Ġjour": 1388,
      "Ġnum": 1389,
      "ordin": 1390,
      "ĠdÃ©termin": 1391,
      "Ġali": 1392,
      "Ġon": 1393,
      "atif": 1394,
      "Åĵu": 1395,
      "tivitÃ©": 1396,
      "ergie": 1397,
      "ĠproblÃ¨me": 1398,
      "ĠÃītats": 1399,
      "vre": 1400,
      "Ġchange": 1401,
      "Les": 1402,
      "ĠsÃ©curitÃ©": 1403,
      "Ã©limination": 1404,
      "Ġvers": 1405,
      "ran": 1406,
      "Ġexpliquez": 1407,
      "Ġlui": 1408,
      "ell": 1409,
      "ĠdÃ©s": 1410,
      "Ġposi": 1411,
      "tri": 1412,
      "Ã©v": 1413,
      "sions": 1414,
      "Ã©nergie": 1415,
      "Ġsci": 1416,
      "mo": 1417,
      "Ġquelque": 1418,
      "ĠconsÃ©qu": 1419,
      "Ġbo": 1420,
      "raph": 1421,
      "Ġforme": 1422,
      "ement": 1423,
      "lique": 1424,
      "Ġdoivent": 1425,
      "Ġautom": 1426,
      "Ġfich": 1427,
      "Ġdro": 1428,
      "Ġprend": 1429,
      "ĠNous": 1430,
      "Ġclients": 1431,
      "apprentissage": 1432,
      "Ġbou": 1433,
      "for": 1434,
      "uses": 1435,
      "Ġtant": 1436,
      "ĠÃ©conom": 1437,
      "ĠPouvez": 1438,
      "ĠÃ©lÃ©": 1439,
      "ĠlÃ©g": 1440,
      "sionn": 1441,
      "aiss": 1442,
      "istoire": 1443,
      "sement": 1444,
      "ĠĠĠ": 1445,
      "Ġcours": 1446,
      "Ġdist": 1447,
      "Ġsomme": 1448,
      "oudre": 1449,
      "Ã´t": 1450,
      "Ġparticu": 1451,
      "Ã©ren": 1452,
      "rodu": 1453,
      "Ġ\\": 1454,
      "ains": 1455,
      "Ġproduits": 1456,
      "iment": 1457,
      "iller": 1458,
      "Ġmont": 1459,
      "ĠtÃ¢": 1460,
      "Ġchi": 1461,
      "Ġcommen": 1462,
      "tern": 1463,
      "ĠtÃ©lÃ©": 1464,
      "ĠPouvons": 1465,
      "rent": 1466,
      "Ġtexte": 1467,
      "titu": 1468,
      "Ġche": 1469,
      "Ġaugment": 1470,
      "action": 1471,
      "Ġthe": 1472,
      "enu": 1473,
      "tez": 1474,
      "Ġgar": 1475,
      "argent": 1476,
      "oses": 1477,
      "Ġsenti": 1478,
      "Ġtotal": 1479,
      "Ġbi": 1480,
      "Ġplace": 1481,
      "Ġpartie": 1482,
      "Ġsuivante": 1483,
      "cle": 1484,
      "ĠamÃ©liorer": 1485,
      "Ġdom": 1486,
      "Ġcu": 1487,
      "iles": 1488,
      "ipe": 1489,
      "ĠdÃ©ta": 1490,
      "Ġris": 1491,
      "sif": 1492,
      "ric": 1493,
      "ore": 1494,
      "ĠÃ©lev": 1495,
      "Ġefficace": 1496,
      "Ġri": 1497,
      "Ġindi": 1498,
      "anci": 1499,
      "Ġidentif": 1500,
      "aines": 1501,
      "Ġdevez": 1502,
      "erre": 1503,
      "Ġesp": 1504,
      "Ġfacteurs": 1505,
      "Ġvoy": 1506,
      "ame": 1507,
      "IA": 1508,
      "iÃ¨me": 1509,
      "Ġgrande": 1510,
      "Ġ)": 1511,
      "Ġsitu": 1512,
      "Ġanim": 1513,
      "Ġlivre": 1514,
      "Ġchoses": 1515,
      "nent": 1516,
      "tenant": 1517,
      "cture": 1518,
      "Ġrecherche": 1519,
      "ĠElle": 1520,
      "ke": 1521,
      "ĠproblÃ¨mes": 1522,
      "dif": 1523,
      "ds": 1524,
      "16": 1525,
      "Ġpra": 1526,
      "ative": 1527,
      "ysi": 1528,
      "Ġexpl": 1529,
      "Ġend": 1530,
      "dent": 1531,
      "Ġto": 1532,
      "Ġnombres": 1533,
      "Ġdou": 1534,
      "Ġinst": 1535,
      "oth": 1536,
      "ĠUtilis": 1537,
      "ĠÃ©tu": 1538,
      "Ġcorps": 1539,
      "oupe": 1540,
      "Ġquestion": 1541,
      "ĠaprÃ¨s": 1542,
      "euillez": 1543,
      "rir": 1544,
      "Ġsec": 1545,
      "mÃ©": 1546,
      "Ġutilise": 1547,
      "ML": 1548,
      "Ġgl": 1549,
      "Ġtri": 1550,
      "Ġsc": 1551,
      "Ġpris": 1552,
      "ython": 1553,
      "ĠdiffÃ©ren": 1554,
      "he": 1555,
      "ĠÃ©lÃ©ments": 1556,
      "ĠmÃ©thode": 1557,
      "Ġappel": 1558,
      "lection": 1559,
      "Ġphysi": 1560,
      "eff": 1561,
      "acc": 1562,
      "Ġ12": 1563,
      "Ġjusqu": 1564,
      "Unis": 1565,
      "ager": 1566,
      "ĠrÃ©sultats": 1567,
      "Ġ%": 1568,
      "Ġraison": 1569,
      "Ġprogramme": 1570,
      "Ġensemble": 1571,
      "omp": 1572,
      "ĠutilisÃ©es": 1573,
      "Ġorgan": 1574,
      "ĠrÃ©duire": 1575,
      "Ġlettre": 1576,
      "Ġdevrait": 1577,
      "Ġresp": 1578,
      "ĠcÃ´": 1579,
      "Ġpass": 1580,
      "jets": 1581,
      "Ġemploy": 1582,
      "cter": 1583,
      "Ġpouv": 1584,
      "ma": 1585,
      "tent": 1586,
      "Ġmesure": 1587,
      "Ġag": 1588,
      "bilitÃ©": 1589,
      "Ġlim": 1590,
      "Ġenf": 1591,
      "In": 1592,
      "ann": 1593,
      "ros": 1594,
      "prise": 1595,
      "Ġentreprises": 1596,
      "Ġparce": 1597,
      "Ġinclure": 1598,
      "pÃ©rience": 1599,
      "mar": 1600,
      "Ġchau": 1601,
      "ĠrÃ©se": 1602,
      "Ġpol": 1603,
      "ĠcompÃ©": 1604,
      "Ġcertains": 1605,
      "Ġavons": 1606,
      "Ã©rif": 1607,
      "',": 1608,
      "Ã´le": 1609,
      "Ġcompris": 1610,
      "Ġdisp": 1611,
      "ĠÃ©cri": 1612,
      "ĠÃª": 1613,
      "Ġquanti": 1614,
      "Ġcou": 1615,
      "Ġchar": 1616,
      "icile": 1617,
      "riez": 1618,
      "Ġtest": 1619,
      "oci": 1620,
      "Ġconcep": 1621,
      "Ġrou": 1622,
      "Ġrequ": 1623,
      "ĠqualitÃ©": 1624,
      "Ġchois": 1625,
      "cte": 1626,
      "cour": 1627,
      "env": 1628,
      "Ġstru": 1629,
      "Ġgouver": 1630,
      "Ġk": 1631,
      "ash": 1632,
      "Ġanaly": 1633,
      "Ġencore": 1634,
      "Ġprob": 1635,
      "ĠÃ©tapes": 1636,
      "riture": 1637,
      "RL": 1638,
      "resp": 1639,
      "Ġsim": 1640,
      "ones": 1641,
      "Ġsais": 1642,
      "ĠRe": 1643,
      "eures": 1644,
      "ix": 1645,
      "Ġetc": 1646,
      "Ġalgorith": 1647,
      "Ġtraitement": 1648,
      "rom": 1649,
      "Ġmettre": 1650,
      "uli": 1651,
      "Ġplu": 1652,
      "issez": 1653,
      "part": 1654,
      "Ġmodif": 1655,
      "Ġculture": 1656,
      "Ġconv": 1657,
      "Ġcontin": 1658,
      "isation": 1659,
      "Ġchans": 1660,
      "Ã¨te": 1661,
      "Ġparticuli": 1662,
      "Ġsta": 1663,
      "ĠspÃ©cifiques": 1664,
      "Ġress": 1665,
      "Ã©p": 1666,
      "17": 1667,
      "Ġaffich": 1668,
      "ense": 1669,
      "ĠrÃ©soudre": 1670,
      "Ġsp": 1671,
      "andis": 1672,
      "ĠCes": 1673,
      "ĠchaÃ®": 1674,
      "estions": 1675,
      "Ġfilm": 1676,
      "Ġcontra": 1677,
      "Ġtechniques": 1678,
      "Ġsel": 1679,
      "ub": 1680,
      "aide": 1681,
      "ĠutilisÃ©s": 1682,
      "Ġrecomm": 1683,
      "ument": 1684,
      "Ġdern": 1685,
      "Ġloc": 1686,
      "Ġreven": 1687,
      "Ġcertaines": 1688,
      "tient": 1689,
      "Ġpoint": 1690,
      "Ã¨ne": 1691,
      "entreprise": 1692,
      "Ġlum": 1693,
      "Ġafin": 1694,
      "Ġval": 1695,
      "Ġbon": 1696,
      "ĠÃªtes": 1697,
      "tring": 1698,
      "der": 1699,
      "abilitÃ©": 1700,
      "ĠX": 1701,
      "Ġatte": 1702,
      "ĠdÃ©terminer": 1703,
      "Ġperform": 1704,
      "Ġtoute": 1705,
      "iner": 1706,
      "tte": 1707,
      "Ġsimplement": 1708,
      "Ġfinanci": 1709,
      "Ġutilisateurs": 1710,
      "autre": 1711,
      "Ġpremier": 1712,
      "Ġci": 1713,
      "Ġsub": 1714,
      "euse": 1715,
      "analyse": 1716,
      "Ġserait": 1717,
      "Ġnombreux": 1718,
      "Ġscientif": 1719,
      "Ġtaux": 1720,
      "ĠmÃ©dic": 1721,
      "Ġordin": 1722,
      "Ã©l": 1723,
      "ĠMar": 1724,
      "ĠpremiÃ¨re": 1725,
      "ĠdonnÃ©": 1726,
      "Ã¨rement": 1727,
      "Ġsuivre": 1728,
      "Ġstra": 1729,
      "ĠmarchÃ©": 1730,
      "pliquer": 1731,
      "Ġniveau": 1732,
      "indre": 1733,
      "rÃ©es": 1734,
      "Ġ15": 1735,
      "utiliser": 1736,
      "Ġcher": 1737,
      "ĠentraÃ®": 1738,
      "Ġprofes": 1739,
      "\")": 1740,
      "Ġpa": 1741,
      "Ġif": 1742,
      "issance": 1743,
      "ĠnÃ©g": 1744,
      "ĠLors": 1745,
      "Ġreg": 1746,
      "Ġmul": 1747,
      "Ġavait": 1748,
      "Ġdifficile": 1749,
      "actÃ©": 1750,
      "ograph": 1751,
      "Ã©ric": 1752,
      "Ġpens": 1753,
      "dez": 1754,
      "20": 1755,
      "Ġpage": 1756,
      "Ġlangage": 1757,
      "Ġcorresp": 1758,
      "ĠtempÃ©ra": 1759,
      "ON": 1760,
      "ĠsociÃ©tÃ©": 1761,
      "orti": 1762,
      "ava": 1763,
      "Ġach": 1764,
      "Ġsuit": 1765,
      "Ġcel": 1766,
      "Ġmieux": 1767,
      "Ġcondi": 1768,
      "Ġtandis": 1769,
      "Ġvoir": 1770,
      "Ġjam": 1771,
      "Ġmess": 1772,
      "Ġappl": 1773,
      "Ġautomatique": 1774,
      "olution": 1775,
      "ĠAn": 1776,
      "actÃ©ris": 1777,
      "Ġobjec": 1778,
      "icien": 1779,
      "Ġhaut": 1780,
      "Ġenvironnement": 1781,
      "ĠstratÃ©g": 1782,
      "Ġeu": 1783,
      "hn": 1784,
      "Ġclient": 1785,
      "Ġunique": 1786,
      "ĠdÃ©b": 1787,
      "ath": 1788,
      "utilisateur": 1789,
      "Ġsera": 1790,
      "Ġsite": 1791,
      "em": 1792,
      "Ġsuc": 1793,
      "Ġpor": 1794,
      "Ġactu": 1795,
      "ibli": 1796,
      "isme": 1797,
      "Ġsens": 1798,
      "Ġdonner": 1799,
      "ommes": 1800,
      "Ġtrop": 1801,
      "ĠsupplÃ©ment": 1802,
      "Ġlit": 1803,
      "Ġvaleurs": 1804,
      "ĠgÃ©nÃ©rer": 1805,
      "Ġminu": 1806,
      "Ġterme": 1807,
      "Ġentreprise": 1808,
      "Ġchanson": 1809,
      "ting": 1810,
      "ĠĠĠĠĠ": 1811,
      "ĠPython": 1812,
      "Ġchiff": 1813,
      "Ġmath": 1814,
      "Ġavantages": 1815,
      "Ġ100": 1816,
      "Ġsal": 1817,
      "ĠAu": 1818,
      "ht": 1819,
      "ĠVeuillez": 1820,
      "atiques": 1821,
      "19": 1822,
      "Ġbibli": 1823,
      "ĠdÃ©fin": 1824,
      "table": 1825,
      "Ġdemand": 1826,
      "Ġextra": 1827,
      "ĠdÃ©veloppement": 1828,
      "Ġpasse": 1829,
      "Ġcorre": 1830,
      "Ġcompos": 1831,
      "Ġobtenir": 1832,
      "ĠcaractÃ©ris": 1833,
      "Ġgroupe": 1834,
      "dec": 1835,
      "cal": 1836,
      "Ġfonctionn": 1837,
      "ud": 1838,
      "othÃ¨": 1839,
      "lab": 1840,
      "tim": 1841,
      "ĠrÃ¨gles": 1842,
      "Ġfichier": 1843,
      "Ġfam": 1844,
      "ok": 1845,
      "Ġfer": 1846,
      "az": 1847,
      "ĠconsidÃ©": 1848,
      "Ġprofessionn": 1849,
      "Ġvraiment": 1850,
      "Ġrempl": 1851,
      "ĠbibliothÃ¨": 1852,
      "ibles": 1853,
      "ension": 1854,
      "ert": 1855,
      "Ġindiv": 1856,
      "tÃ©r": 1857,
      "Ġrespe": 1858,
      "Ġbr": 1859,
      "Ġpropri": 1860,
      "Ġsouh": 1861,
      "Ġtend": 1862,
      "Ġlieu": 1863,
      "Ġconstru": 1864,
      "ticle": 1865,
      "Ġenti": 1866,
      "issant": 1867,
      "Ġtechnologie": 1868,
      "Ġfl": 1869,
      "Ġmen": 1870,
      "ĠY": 1871,
      "Ġconsid": 1872,
      "usion": 1873,
      "Ġquelqu": 1874,
      "ĠÅĵu": 1875,
      "ĠcompÃ©ten": 1876,
      "Ġidentifier": 1877,
      "Ġelles": 1878,
      "Ġcalculer": 1879,
      "Ġsuivant": 1880,
      "Ġcorrespond": 1881,
      "Ġconsomm": 1882,
      "bli": 1883,
      "ĠrÃ©alis": 1884,
      "Ġrecommand": 1885,
      "Ġrich": 1886,
      "Ġsau": 1887,
      "nes": 1888,
      "atis": 1889,
      "ĠspÃ©cifique": 1890,
      "cup": 1891,
      "Ġcet": 1892,
      "Ġnouveau": 1893,
      "iÃ¨res": 1894,
      "Ġbonne": 1895,
      "Ã©tique": 1896,
      "Ġmom": 1897,
      "ĠnÃ©cessaire": 1898,
      "Ġcuis": 1899,
      "vis": 1900,
      "Ġcontr": 1901,
      "Ġquestions": 1902,
      "Ġtypes": 1903,
      "Ġĉ": 1904,
      "voir": 1905,
      "Ġclas": 1906,
      "Ġven": 1907,
      "ĠvÃ©rif": 1908,
      "oires": 1909,
      "ĠdÃ©cl": 1910,
      "Ġtu": 1911,
      "Ġcomporte": 1912,
      "oix": 1913,
      "Ġaliment": 1914,
      "ĠmÃ©dec": 1915,
      "Ã©cu": 1916,
      "Ġappropri": 1917,
      "Ġpourraient": 1918,
      "Ġoui": 1919,
      "Ġajouter": 1920,
      "Ġexis": 1921,
      "Ġmati": 1922,
      "quÃ©": 1923,
      "itesse": 1924,
      "Ġsoi": 1925,
      "Ġall": 1926,
      "Ġtaille": 1927,
      "Ġbar": 1928,
      "puis": 1929,
      "vo": 1930,
      "Ġensuite": 1931,
      "con": 1932,
      "ara": 1933,
      "ohn": 1934,
      "ress": 1935,
      "posi": 1936,
      "Ġmoyen": 1937,
      "Ġexc": 1938,
      "Ġple": 1939,
      "ĠrÃ©guli": 1940,
      "Ġrendre": 1941,
      "De": 1942,
      "art": 1943,
      "En": 1944,
      "Ġrapport": 1945,
      "tives": 1946,
      "envir": 1947,
      "ustri": 1948,
      "Ġfonctionne": 1949,
      "Ġheure": 1950,
      "ĠEnsuite": 1951,
      "Ġactions": 1952,
      "Ġparf": 1953,
      "face": 1954,
      "ĠmatÃ©ri": 1955,
      "Ġformule": 1956,
      "Ġmilli": 1957,
      "Ġoutil": 1958,
      "ĠcoÃ»t": 1959,
      "ber": 1960,
      "ctement": 1961,
      "ĠmathÃ©m": 1962,
      "Ġcan": 1963,
      "grÃ©": 1964,
      "let": 1965,
      "tagne": 1966,
      "isez": 1967,
      "Ġnombreuses": 1968,
      "Ġessenti": 1969,
      "Ġrapidement": 1970,
      "Ġquand": 1971,
      "Ġmis": 1972,
      "Ġcompar": 1973,
      "orts": 1974,
      "Ġcri": 1975,
      "Ġnouvelle": 1976,
      "Ġbesoins": 1977,
      "aces": 1978,
      "dess": 1979,
      "val": 1980,
      "Ġcolle": 1981,
      "Ġcontrib": 1982,
      "mation": 1983,
      "Ġcaract": 1984,
      "empl": 1985,
      "ĠsÃ»": 1986,
      "Ã©t": 1987,
      "Ġsolution": 1988,
      "Ġgouvernement": 1989,
      "Ġlorsqu": 1990,
      "ars": 1991,
      "Ġcoup": 1992,
      "ry": 1993,
      "ĠquantitÃ©": 1994,
      "Ġtravers": 1995,
      "can": 1996,
      "Ġmaison": 1997,
      "ack": 1998,
      "Ġvisu": 1999,
      "Ġinves": 2000,
      "Ġville": 2001,
      "Ġvar": 2002,
      "Ã¨ces": 2003,
      "Ġsorti": 2004,
      "Ġdemande": 2005,
      "Ġemp": 2006,
      "oration": 2007,
      "Ġlogici": 2008,
      "Ġvitesse": 2009,
      "Ġsavoir": 2010,
      "ĠamÃ©ric": 2011,
      "Ġconcer": 2012,
      "Ġlar": 2013,
      "roid": 2014,
      "bo": 2015,
      "ĠcomplÃ¨": 2016,
      "ĠCrÃ©": 2017,
      "urn": 2018,
      "Ġjouer": 2019,
      "Ġweb": 2020,
      "Ġrespons": 2021,
      "Ġessay": 2022,
      "Ġphysique": 2023,
      "gg": 2024,
      "ĠJava": 2025,
      "odes": 2026,
      "inter": 2027,
      "Ġsuff": 2028,
      "Ġins": 2029,
      "erc": 2030,
      "aison": 2031,
      "Ã©ro": 2032,
      "=\"": 2033,
      "ĠconsÃ©quent": 2034,
      "Ġplupart": 2035,
      "Ġcat": 2036,
      "ĠrÃ©fÃ©rence": 2037,
      "tÃ©e": 2038,
      "histoire": 2039,
      "Ġdivers": 2040,
      "ĠmodÃ¨les": 2041,
      "erci": 2042,
      "Ġdoc": 2043,
      "Ġfaci": 2044,
      "ĠsÃ©lection": 2045,
      "Ġmulti": 2046,
      "QL": 2047,
      "TML": 2048,
      "ĠcapacitÃ©": 2049,
      "ĠchaÃ®ne": 2050,
      "Ġtermes": 2051,
      "Ġnaturel": 2052,
      "riÃ¨re": 2053,
      "ensemble": 2054,
      "Ġpersonnalis": 2055,
      "oun": 2056,
      "ĠlumiÃ¨re": 2057,
      "ĠURL": 2058,
      "ĠsystÃ¨mes": 2059,
      "yn": 2060,
      "Ã¨tres": 2061,
      "ĠdÃ©pl": 2062,
      "eter": 2063,
      "tamment": 2064,
      "atives": 2065,
      "ondre": 2066,
      "Ġexpliquer": 2067,
      "Ġlogique": 2068,
      "Ġnorm": 2069,
      "nements": 2070,
      "ĠÃ©tudi": 2071,
      "ĠcompÃ©tences": 2072,
      "Ġjours": 2073,
      "Ġgen": 2074,
      "Ġexp": 2075,
      "Ġressour": 2076,
      "cur": 2077,
      "Ġtrouv": 2078,
      "alitÃ©s": 2079,
      "Ġ000": 2080,
      "ĠdÃ©m": 2081,
      "aute": 2082,
      "ys": 2083,
      "abord": 2084,
      "ĠtempÃ©rature": 2085,
      "ĠÃ©mo": 2086,
      "Ġjamais": 2087,
      "ĠĠĠĠĠĠĠĠĠ": 2088,
      "Ġmontagne": 2089,
      "SON": 2090,
      "Ġmaintenant": 2091,
      "olÃ©": 2092,
      "Ġpropre": 2093,
      "Ġheures": 2094,
      "Ġdispon": 2095,
      "Ġsyn": 2096,
      "))": 2097,
      "impact": 2098,
      "Ġjuste": 2099,
      "cteur": 2100,
      "Ġmag": 2101,
      "ĠpÃ©ri": 2102,
      "ĠWeb": 2103,
      "Ġes": 2104,
      "inform": 2105,
      "ĠdÃ©pend": 2106,
      "Ã©rique": 2107,
      "Ġ30": 2108,
      "Ġcommande": 2109,
      "Ġauc": 2110,
      "la": 2111,
      "issent": 2112,
      "Ġlib": 2113,
      "eng": 2114,
      "ĠDÃ©": 2115,
      "man": 2116,
      "cript": 2117,
      "ige": 2118,
      "amment": 2119,
      "ellig": 2120,
      "Ġsujet": 2121,
      "Ġformat": 2122,
      "get": 2123,
      "quelle": 2124,
      "oles": 2125,
      "Ġgestion": 2126,
      "xim": 2127,
      "umÃ©": 2128,
      "ennis": 2129,
      "ĠfrÃ©": 2130,
      "Ġclim": 2131,
      "Ġcouleur": 2132,
      "Ġminutes": 2133,
      "itation": 2134,
      "Ã¯": 2135,
      "Ġlaquelle": 2136,
      "ĠannÃ©es": 2137,
      "Ġgraph": 2138,
      "tile": 2139,
      "tÃ©es": 2140,
      "Ġcombin": 2141,
      "ĠUtilisez": 2142,
      "ĠAl": 2143,
      "Ġtennis": 2144,
      "ĠÃ©p": 2145,
      "ĠLorsque": 2146,
      "Ġhab": 2147,
      "Ġmise": 2148,
      "Ġ18": 2149,
      "ĠPl": 2150,
      "ĠTout": 2151,
      "Ġpeux": 2152,
      "Ġtrain": 2153,
      "acer": 2154,
      "Ġjourn": 2155,
      "ĠÃ§": 2156,
      "lez": 2157,
      "tÃ©rieur": 2158,
      "ĠÃ§a": 2159,
      "hui": 2160,
      "ĠMais": 2161,
      "Ġgaranti": 2162,
      "ĠrÃ©f": 2163,
      "Ġphot": 2164,
      "Ġsociaux": 2165,
      "ĠinfÃ©rer": 2166,
      "ĠÃ©taient": 2167,
      "ĠEt": 2168,
      "ĠNe": 2169,
      "Ġclasse": 2170,
      "ĠcaractÃ©ristiques": 2171,
      "ira": 2172,
      "Ġpouvoir": 2173,
      "ablement": 2174,
      "avant": 2175,
      "ĠHTML": 2176,
      "idu": 2177,
      "Ġexistenti": 2178,
      "Ġreturn": 2179,
      "ĠÃ©val": 2180,
      "ĠQuel": 2181,
      "ĠÃ©ch": 2182,
      "iÃ©": 2183,
      "Ġchac": 2184,
      "Ġselon": 2185,
      "ĠGo": 2186,
      "Ġressources": 2187,
      "Ġconse": 2188,
      "Ġimpact": 2189,
      "ids": 2190,
      "ommez": 2191,
      "ov": 2192,
      "isÃ©": 2193,
      ".\"": 2194,
      "ivre": 2195,
      "Ġmem": 2196,
      "yant": 2197,
      "ĠrÃ©sultat": 2198,
      "Ġprom": 2199,
      "utÃ´t": 2200,
      "Ã¨ce": 2201,
      "actions": 2202,
      "Ġpren": 2203,
      "Ġmouve": 2204,
      "erta": 2205,
      "Ġmoment": 2206,
      "mps": 2207,
      "Ġmois": 2208,
      "aque": 2209,
      "ĠsÃ»r": 2210,
      "Ġanalyse": 2211,
      "Ġvir": 2212,
      "ĠÃĢ": 2213,
      "Ġanimaux": 2214,
      "reg": 2215,
      "aissance": 2216,
      "ĠJSON": 2217,
      "ĠJohn": 2218,
      "dire": 2219,
      "jour": 2220,
      "enant": 2221,
      "Ġdoll": 2222,
      "Ġref": 2223,
      "roduction": 2224,
      "ĠvidÃ©": 2225,
      "Ġactiv": 2226,
      "agit": 2227,
      "tir": 2228,
      "ĠtÃ¢ches": 2229,
      "Ġtransp": 2230,
      "ĠÃ©vÃ©": 2231,
      "Ġrece": 2232,
      "Ġ</": 2233,
      "Ġexemples": 2234,
      "Ġservices": 2235,
      "Ġ;": 2236,
      "erv": 2237,
      "Ġconduit": 2238,
      "ĠplutÃ´t": 2239,
      "Ġnour": 2240,
      "Ġsqu": 2241,
      "Ġconditions": 2242,
      "Ġdura": 2243,
      "Ġmoyenne": 2244,
      "Ġsimil": 2245,
      "ĠTr": 2246,
      "istor": 2247,
      "orie": 2248,
      "aise": 2249,
      "ĠNommez": 2250,
      "Ġreconn": 2251,
      "ĠprÃªt": 2252,
      "ĠDes": 2253,
      "Ġdepuis": 2254,
      "18": 2255,
      "arder": 2256,
      "liqu": 2257,
      "Ġpetit": 2258,
      "ĠnÃ©cessaires": 2259,
      "ĠcÃ´tÃ©": 2260,
      "Ġnoter": 2261,
      "ade": 2262,
      "Ġnouvelles": 2263,
      "ĠdÃ©ci": 2264,
      "Ġfont": 2265,
      "Ġservice": 2266,
      "Ġrisque": 2267,
      "mez": 2268,
      "cles": 2269,
      "agne": 2270,
      "Ġsole": 2271,
      "Ġpertin": 2272,
      "Ġfacilement": 2273,
      "Ġsoleil": 2274,
      "ili": 2275,
      "Ġconta": 2276,
      "duc": 2277,
      "inf": 2278,
      "Ġstructure": 2279,
      "Ġcarb": 2280,
      "iz": 2281,
      "Ġprojet": 2282,
      "Ġfem": 2283,
      "Ġof": 2284,
      "Ġassoci": 2285,
      "ray": 2286,
      "Ġgu": 2287,
      "ox": 2288,
      "Ã©f": 2289,
      "Ġcouleurs": 2290,
      "timis": 2291,
      "ĠTh": 2292,
      "Ġfacile": 2293,
      "Ġnav": 2294,
      "Ġenfants": 2295,
      "Ġsugg": 2296,
      "Ġcontenu": 2297,
      "teur": 2298,
      "ĠDu": 2299,
      "ĠdiffÃ©rence": 2300,
      "onnes": 2301,
      "Ġcontient": 2302,
      "ĠSQL": 2303,
      "eut": 2304,
      "ĠmÃ©l": 2305,
      "Ġchoix": 2306,
      "Ġcur": 2307,
      "Ġfrais": 2308,
      "istant": 2309,
      "auv": 2310,
      "Ġsimple": 2311,
      "Ġmesures": 2312,
      "oyer": 2313,
      "Ġassez": 2314,
      "Ġquoi": 2315,
      "Ġatten": 2316,
      "nom": 2317,
      "ĠmÃ©decin": 2318,
      "Ġsquash": 2319,
      "rique": 2320,
      "Ġappar": 2321,
      "Ġnot": 2322,
      "Ġmessage": 2323,
      "ĠTra": 2324,
      "Ãªts": 2325,
      "ĠprotÃ©g": 2326,
      "Ġsituation": 2327,
      "Ġ50": 2328,
      "Ġanalyser": 2329,
      "oulez": 2330,
      "avoir": 2331,
      "Ġfais": 2332,
      "cription": 2333,
      "ĠÃ©crit": 2334,
      "Ġcir": 2335,
      "Ġsources": 2336,
      "Ġcontex": 2337,
      "ĠdÃ©te": 2338,
      "ĠmÃ©can": 2339,
      "to": 2340,
      "Ġfond": 2341,
      "Je": 2342,
      "uss": 2343,
      "orter": 2344,
      "ĠsÃ©ri": 2345,
      "tage": 2346,
      "ĠdeuxiÃ¨me": 2347,
      "ĠdÃ©cision": 2348,
      "Ġlire": 2349,
      "ĠfrÃ©qu": 2350,
      "Ġpropos": 2351,
      "Ġdit": 2352,
      "Ġprint": 2353,
      "ides": 2354,
      "oul": 2355,
      "Ġscientifique": 2356,
      "ĠCerta": 2357,
      "Ġtravaille": 2358,
      "cier": 2359,
      "Ġnotamment": 2360,
      "Ġcommunication": 2361,
      "Ġobjectifs": 2362,
      "Ã©d": 2363,
      "ologiques": 2364,
      "AT": 2365,
      "Ġnos": 2366,
      "rant": 2367,
      "Ġ]": 2368,
      "Ã©quipe": 2369,
      "ĠclÃ©s": 2370,
      "algorith": 2371,
      "Ġeffet": 2372,
      "ec": 2373,
      "aff": 2374,
      "ĠrÃ©pondre": 2375,
      "ĠAinsi": 2376,
      "Ġarg": 2377,
      "ĠgÃ©": 2378,
      "Ġcommencer": 2379,
      "Ġdistance": 2380,
      "Ġreste": 2381,
      "urant": 2382,
      "Ġconver": 2383,
      "Ġoptions": 2384,
      "ĠCon": 2385,
      "ront": 2386,
      "Ġmondi": 2387,
      "Ġfamille": 2388,
      "ĠgÃ©rer": 2389,
      "Ã©at": 2390,
      "Ġtravailler": 2391,
      "Ġcent": 2392,
      "environnement": 2393,
      "euses": 2394,
      "Ġadap": 2395,
      "rÃ©h": 2396,
      "Ġpasser": 2397,
      "ueur": 2398,
      "ĠdÃ©pens": 2399,
      "Ġparties": 2400,
      "ĠÃ©viter": 2401,
      "ĠmÃ©di": 2402,
      "ĠdÃ©clar": 2403,
      "Ġproduction": 2404,
      "Ãªtes": 2405,
      "cteurs": 2406,
      "ĠexpÃ©rience": 2407,
      "Ġpoids": 2408,
      "Ġand": 2409,
      "++": 2410,
      "ĠcaractÃ¨res": 2411,
      "str": 2412,
      "Ġmaj": 2413,
      "Ġaide": 2414,
      "Ġbure": 2415,
      "Ġdess": 2416,
      "Ġpopulation": 2417,
      "ĠbÃ©n": 2418,
      "Ġfaut": 2419,
      "tissement": 2420,
      "Ġcommunau": 2421,
      "__": 2422,
      "Ġinflu": 2423,
      "Ġprogrammation": 2424,
      "ĠpropriÃ©tÃ©": 2425,
      "Ġdollars": 2426,
      "ĠtÃ¢che": 2427,
      "ĠrÃ©sumÃ©": 2428,
      "Ġcroissance": 2429,
      "Ġvol": 2430,
      "Ġeffets": 2431,
      "ensi": 2432,
      "ectuer": 2433,
      "Ġindiquer": 2434,
      "ĠalÃ©at": 2435,
      "Ġban": 2436,
      "Ġment": 2437,
      "Ġtax": 2438,
      "----------------": 2439,
      "Ġsouhait": 2440,
      "ttes": 2441,
      "Ġvoulez": 2442,
      "rig": 2443,
      "Ġdiffic": 2444,
      "Ġfeu": 2445,
      "Ġsus": 2446,
      "Ãī": 2447,
      "ĠrÃ©seau": 2448,
      "Ġassurer": 2449,
      "ĠdÃ©velopper": 2450,
      "Ġfab": 2451,
      "Ġinstru": 2452,
      "Ġcomplexe": 2453,
      "Ġcarte": 2454,
      "ĠmÃ©thodes": 2455,
      "uent": 2456,
      "lo": 2457,
      "Ġcomprend": 2458,
      "Ġtransi": 2459,
      "Ġsentiment": 2460,
      "Ġexistentielle": 2461,
      "Ġpourriez": 2462,
      "ĠdÃ©solÃ©": 2463,
      "ĠPro": 2464,
      "dients": 2465,
      "appl": 2466,
      "tures": 2467,
      "Ġfru": 2468,
      "lect": 2469,
      "alisation": 2470,
      "ĠgÃ©nÃ©ral": 2471,
      "Ġ200": 2472,
      "bes": 2473,
      "Ġconcent": 2474,
      "Ġoutils": 2475,
      "name": 2476,
      "Ġeux": 2477,
      "data": 2478,
      "Ġ25": 2479,
      "ĠactivitÃ©s": 2480,
      "Ġprofond": 2481,
      "Ġchez": 2482,
      "ĠrÃ©gion": 2483,
      "Ġalgorithmes": 2484,
      "Ġindividu": 2485,
      "urez": 2486,
      "outer": 2487,
      "Ġpati": 2488,
      "ĠdonnÃ©e": 2489,
      "ĠtÃ©lÃ©ph": 2490,
      "ĠcomprÃ©h": 2491,
      "onde": 2492,
      "utions": 2493,
      "vitÃ©": 2494,
      "ĠDonc": 2495,
      "ires": 2496,
      "ĠdÃ©j": 2497,
      "ton": 2498,
      "zz": 2499,
      "uerre": 2500,
      "Ġconsiste": 2501,
      "illi": 2502,
      "log": 2503,
      "Ġmeilleure": 2504,
      "Ġsuffis": 2505,
      "Ġpres": 2506,
      "ĠsupÃ©ri": 2507,
      "Ġgaz": 2508,
      "tit": 2509,
      "ords": 2510,
      "com": 2511,
      "Ġplate": 2512,
      "Ġclass": 2513,
      "Ġquelle": 2514,
      "ĠintÃ©g": 2515,
      "Ġforce": 2516,
      "put": 2517,
      "Ġchangement": 2518,
      "Ã©tait": 2519,
      "Ġpolitiques": 2520,
      "ĠdÃ©jÃł": 2521,
      "Ġcellu": 2522,
      "Ġtom": 2523,
      "('": 2524,
      "dessus": 2525,
      "Ġcuisine": 2526,
      "Ġcomplexes": 2527,
      "ed": 2528,
      "Ġpart": 2529,
      "ĠprÃ©cision": 2530,
      "ĠÃ©li": 2531,
      "ĠrÃ©c": 2532,
      "Ġmode": 2533,
      "Ġstocker": 2534,
      "cel": 2535,
      "ories": 2536,
      "Ġconcl": 2537,
      "ges": 2538,
      "Ġis": 2539,
      "Ġbureau": 2540,
      "ĠsupplÃ©mentaires": 2541,
      "Ġlivres": 2542,
      "ett": 2543,
      "ĠbibliothÃ¨que": 2544,
      "expl": 2545,
      "rais": 2546,
      ".\\": 2547,
      "Ġmach": 2548,
      "Ġlarge": 2549,
      "Ġcomportement": 2550,
      "Ġminim": 2551,
      "Ġfaites": 2552,
      "Ġseul": 2553,
      "ĠdÃ©taill": 2554,
      "Ġcolonne": 2555,
      "son": 2556,
      "Ġappare": 2557,
      "ĠÅĵuvre": 2558,
      "ĠcrÃ©dit": 2559,
      "Ġvent": 2560,
      "Ġserveur": 2561,
      "istes": 2562,
      "Ġrend": 2563,
      "rire": 2564,
      "oupes": 2565,
      "cts": 2566,
      "ity": 2567,
      "Ġendro": 2568,
      "Ġcapable": 2569,
      "ames": 2570,
      "Ġ16": 2571,
      "adi": 2572,
      "Ġpap": 2573,
      "Ġlangue": 2574,
      "Ġpolitique": 2575,
      "Ġraisons": 2576,
      "Ġjeux": 2577,
      "Ġhumains": 2578,
      "ĠcatÃ©g": 2579,
      "Ġatteindre": 2580,
      "Ġvoici": 2581,
      "Ġordinateur": 2582,
      "Ġceux": 2583,
      "atifs": 2584,
      "uÃ©": 2585,
      "Ġsorte": 2586,
      "Ã§u": 2587,
      "Ġvariables": 2588,
      "ĠentraÃ®ner": 2589,
      "ĠQuelle": 2590,
      "Ġconne": 2591,
      "assurer": 2592,
      "Ġast": 2593,
      "Ġ==": 2594,
      "Ġtour": 2595,
      "Ġenviron": 2596,
      "Ġriche": 2597,
      "Ġcontredit": 2598,
      "uy": 2599,
      "ticles": 2600,
      "Ã©ch": 2601,
      "cÃ¨s": 2602,
      "Ġsource": 2603,
      "ĠcoÃ»ts": 2604,
      "Ġmaxim": 2605,
      "Ġ&": 2606,
      "Ã©rÃ©": 2607,
      "onction": 2608,
      "Ġerre": 2609,
      "Ġartis": 2610,
      "ony": 2611,
      "Ġtermin": 2612,
      "Ġexac": 2613,
      "Ġfonctionner": 2614,
      "Ġcause": 2615,
      "Ġvue": 2616,
      "cs": 2617,
      "Ġtitre": 2618,
      "Ġbat": 2619,
      "ologie": 2620,
      "Ġcouver": 2621,
      "Ġsoins": 2622,
      "mÃªme": 2623,
      "Ġchauff": 2624,
      "Ġutile": 2625,
      "tien": 2626,
      "Ġparticulier": 2627,
      "ĠÃ©quipe": 2628,
      "Ġpriv": 2629,
      "ml": 2630,
      "Ġmauv": 2631,
      "ĠdÃ©ch": 2632,
      "atr": 2633,
      "aites": 2634,
      "isions": 2635,
      "Ġpratiques": 2636,
      "algorithme": 2637,
      "atre": 2638,
      "Ġsuper": 2639,
      "Ġ>": 2640,
      "ĠcrÃ©ation": 2641,
      "Ġchat": 2642,
      "Ġnourriture": 2643,
      "Ãªmes": 2644,
      "Ġvariable": 2645,
      "Ġpie": 2646,
      "Ġutilisateur": 2647,
      "Ġ<<": 2648,
      "ak": 2649,
      "ĠrequÃªte": 2650,
      "Ġnotation": 2651,
      "Ġpau": 2652,
      "ĠfonctionnalitÃ©s": 2653,
      "vant": 2654,
      "ĠclÃ©": 2655,
      "Ġtard": 2656,
      "Ġmusique": 2657,
      "Ġdate": 2658,
      "ĠprotÃ©ger": 2659,
      "ĠAj": 2660,
      "Ġhistor": 2661,
      "ĠbÃ©nÃ©f": 2662,
      "oÃ»": 2663,
      "Ġarr": 2664,
      "cont": 2665,
      "ĠÃ©n": 2666,
      "ĠApp": 2667,
      "utri": 2668,
      "Ġglob": 2669,
      "sier": 2670,
      "sive": 2671,
      "pÃ©ra": 2672,
      "Ġsoient": 2673,
      "Ġiniti": 2674,
      "Ġcompren": 2675,
      "tro": 2676,
      "ĠrÃ©seaux": 2677,
      "hy": 2678,
      "ĠÃ©tant": 2679,
      "Ġrelation": 2680,
      "ternet": 2681,
      "Ġang": 2682,
      "Ġvente": 2683,
      "ĠcomprÃ©hension": 2684,
      "Ġphrases": 2685,
      "Ġvoyage": 2686,
      "Ġpaie": 2687,
      "Ġayant": 2688,
      "Ġdonne": 2689,
      "urg": 2690,
      "Ġpotentiels": 2691,
      "Ġmor": 2692,
      "Ġprobablement": 2693,
      "Ġdomaine": 2694,
      "chez": 2695,
      "Ġfroid": 2696,
      "Ġ14": 2697,
      "Ġdocument": 2698,
      "isse": 2699,
      "aleur": 2700,
      "Ġproduire": 2701,
      "Ġmaintenir": 2702,
      "fs": 2703,
      "Ġnavig": 2704,
      "Ġperformances": 2705,
      "Ġsemble": 2706,
      "Ġnew": 2707,
      "Ġarri": 2708,
      "ulaire": 2709,
      "espace": 2710,
      "Ġdisc": 2711,
      "arb": 2712,
      "Ġcy": 2713,
      "td": 2714,
      "itez": 2715,
      "ase": 2716,
      "Ġhistoire": 2717,
      "ĠÃ©mis": 2718,
      "Ġsignific": 2719,
      "Ġsecond": 2720,
      "Ġporte": 2721,
      "oin": 2722,
      "ĠrÃ´le": 2723,
      "Ġchoisir": 2724,
      "ER": 2725,
      "Ġnoms": 2726,
      "ĠprÃ©par": 2727,
      "Ġpremiers": 2728,
      "Ġmer": 2729,
      "ime": 2730,
      "Ġconception": 2731,
      "pec": 2732,
      "lis": 2733,
      "ĠintÃ©": 2734,
      "Ġ11": 2735,
      "Ġus": 2736,
      "Ġchangements": 2737,
      "ĠGÃ©n": 2738,
      "Ġmembres": 2739,
      "Ġobjets": 2740,
      "entrÃ©e": 2741,
      "ĠrÃ©cup": 2742,
      "Ġimages": 2743,
      "veaux": 2744,
      "emple": 2745,
      "ĠOn": 2746,
      "Ġtrouve": 2747,
      "ĠmatiÃ¨re": 2748,
      "Ã©conom": 2749,
      "Ġsurface": 2750,
      "Ġopp": 2751,
      "dio": 2752,
      "ane": 2753,
      "titude": 2754,
      "atisf": 2755,
      ".[": 2756,
      "rite": 2757,
      "ament": 2758,
      "ĠemployÃ©s": 2759,
      "ĠmÃ©m": 2760,
      "Ġautour": 2761,
      "ĠÃ©crire": 2762,
      "Ġpetite": 2763,
      "acement": 2764,
      "nerg": 2765,
      "oli": 2766,
      "AB": 2767,
      "text": 2768,
      "outez": 2769,
      "Ġapplications": 2770,
      "ustrie": 2771,
      "ĠBien": 2772,
      "Ġfi": 2773,
      "Ġavoc": 2774,
      "Ġgroupes": 2775,
      "ĠÃ©levÃ©": 2776,
      "Ġlongueur": 2777,
      "ĠRÃ©": 2778,
      "expÃ©rience": 2779,
      "Ġeffectuer": 2780,
      "ĠSu": 2781,
      "keting": 2782,
      "Ġavanc": 2783,
      "Ġcerveau": 2784,
      "isson": 2785,
      "Ġutilisent": 2786,
      "ĠcontrÃ´le": 2787,
      "temps": 2788,
      "ax": 2789,
      "inst": 2790,
      "tÃ©rÃªt": 2791,
      "Ġdata": 2792,
      "effic": 2793,
      "Ġmagas": 2794,
      "vec": 2795,
      "Ġfut": 2796,
      "ĠsÃ©qu": 2797,
      "ĠlÃł": 2798,
      "Ġposition": 2799,
      "Ġlettres": 2800,
      "exp": 2801,
      "Ġchacun": 2802,
      "Ġprise": 2803,
      "ĠCrÃ©ez": 2804,
      "illÃ©": 2805,
      "ĠFaites": 2806,
      "uler": 2807,
      "inves": 2808,
      "vers": 2809,
      "Ġrisques": 2810,
      "ĠMain": 2811,
      "Ġdroit": 2812,
      "Ġimportante": 2813,
      "Ġpeau": 2814,
      "ĠidÃ©e": 2815,
      "isant": 2816,
      "ĠnÃ©cessite": 2817,
      "ĠtransitivitÃ©": 2818,
      "Ġchim": 2819,
      "ĠVotre": 2820,
      "ĠjournÃ©e": 2821,
      "ĠrÃ©el": 2822,
      "Ġpayer": 2823,
      "Ġcertain": 2824,
      "ĠAss": 2825,
      "Ġexam": 2826,
      "Ġobjet": 2827,
      "ĠÃ©lÃ©ment": 2828,
      "Ġpauvre": 2829,
      "Ġniveaux": 2830,
      "ectu": 2831,
      "Ġquatre": 2832,
      "ĠdÃ©cisions": 2833,
      "position": 2834,
      "Ġpartag": 2835,
      "teurs": 2836,
      "ader": 2837,
      "Ġgri": 2838,
      "irm": 2839,
      "ĠÃ©vÃ©nements": 2840,
      "Ġrester": 2841,
      "Ġchiffres": 2842,
      "Ġobten": 2843,
      "Ġparticip": 2844,
      "venir": 2845,
      "Ġvit": 2846,
      "Ġconc": 2847,
      "ennent": 2848,
      "importe": 2849,
      "Ġ13": 2850,
      "Ġdoule": 2851,
      "Ġpratique": 2852,
      "Ġcontexte": 2853,
      "dÃ©": 2854,
      "tici": 2855,
      "ition": 2856,
      "ĠconsidÃ©ra": 2857,
      "Ġutilisez": 2858,
      "elligence": 2859,
      "Ġterre": 2860,
      "ducation": 2861,
      "Ġclimatique": 2862,
      "ork": 2863,
      "agin": 2864,
      "Ġatt": 2865,
      "50": 2866,
      "PI": 2867,
      "ĠinfÃ©": 2868,
      "Ġpression": 2869,
      "iance": 2870,
      "serv": 2871,
      "Ġcommence": 2872,
      "ĠvÃ©rifier": 2873,
      "ĠÃ©th": 2874,
      "Ġĉĉ": 2875,
      "],": 2876,
      "Ġ40": 2877,
      "ĠTerre": 2878,
      "ouvrir": 2879,
      "ules": 2880,
      "Ġgarantir": 2881,
      "Ġafficher": 2882,
      "Ġbout": 2883,
      "Ġcorrectement": 2884,
      "Ġmoi": 2885,
      "ĠÃ©nerg": 2886,
      "Ġautor": 2887,
      "Ġoutre": 2888,
      "Ġju": 2889,
      "Ġindic": 2890,
      "tem": 2891,
      "abet": 2892,
      "Ġorganis": 2893,
      "Ġsatisf": 2894,
      "itaire": 2895,
      "Ġmouvement": 2896,
      "Ã©criture": 2897,
      "Ġlesqu": 2898,
      "Ġneige": 2899,
      "Ġparler": 2900,
      "Ġoc": 2901,
      "Du": 2902,
      "Ġpermettre": 2903,
      "application": 2904,
      "Ġnutri": 2905,
      "Ġheureux": 2906,
      "mon": 2907,
      "ĠingrÃ©": 2908,
      "Ġeng": 2909,
      "ĠÃ¢": 2910,
      "ĠtÃªte": 2911,
      "ĠCal": 2912,
      "Ġsang": 2913,
      "Ġcamp": 2914,
      "ĠpÃ©riode": 2915,
      "ah": 2916,
      "forme": 2917,
      "Ġclassif": 2918,
      "ĠpassÃ©": 2919,
      "Ġfonctions": 2920,
      "Ġpropres": 2921,
      "ĠdÃ©fis": 2922,
      "ĠprÃ©cis": 2923,
      "Ġel": 2924,
      "ards": 2925,
      "ĠvidÃ©o": 2926,
      "duisez": 2927,
      "();": 2928,
      "Ġexig": 2929,
      "tifici": 2930,
      "Ġsex": 2931,
      "dex": 2932,
      "bien": 2933,
      "ĠrÃ©solution": 2934,
      "Ġsymb": 2935,
      "Ġaliments": 2936,
      "aie": 2937,
      "achat": 2938,
      "Ġclaire": 2939,
      "ĠExcel": 2940,
      "tation": 2941,
      "Ġrevenus": 2942,
      "Ġposs": 2943,
      "ĠvariÃ©tÃ©": 2944,
      "lif": 2945,
      "Ġencour": 2946,
      "aÃ®tre": 2947,
      "Ġsortie": 2948,
      "Ã¢ge": 2949,
      "Ġsuffisamment": 2950,
      "Ġsouhaitez": 2951,
      "ĠprÃ©cÃ©": 2952,
      "inte": 2953,
      "ĠChar": 2954,
      "bler": 2955,
      "Ġbal": 2956,
      "arr": 2957,
      "Ġpreu": 2958,
      "orig": 2959,
      "ĠNo": 2960,
      "Ġamis": 2961,
      "efficacitÃ©": 2962,
      "import": 2963,
      "ck": 2964,
      "ĠstratÃ©gie": 2965,
      "Ġface": 2966,
      "Ġmarketing": 2967,
      "Ġrien": 2968,
      "aisse": 2969,
      "Ġpous": 2970,
      "ĠExpliquez": 2971,
      "...": 2972,
      "Ġconsommation": 2973,
      "Ġfaible": 2974,
      "Ġextraire": 2975,
      "ĠÃ©lectr": 2976,
      "ennes": 2977,
      "Ġchamp": 2978,
      "Ġalgorithme": 2979,
      "Ġimm": 2980,
      "Ġaugmenter": 2981,
      "tress": 2982,
      "mi": 2983,
      "Ġtechnique": 2984,
      "tiles": 2985,
      "Ġtransform": 2986,
      "ates": 2987,
      "ĠDÃ©c": 2988,
      "Vo": 2989,
      "Ġacheter": 2990,
      "ĠintÃ©ress": 2991,
      "Ġcombien": 2992,
      "Ġzone": 2993,
      "Ġapproche": 2994,
      "Ġrelations": 2995,
      "jourd": 2996,
      "rÃ¨s": 2997,
      "Ġfonds": 2998,
      "tiennent": 2999,
      "auche": 3000,
      "Ġfruits": 3001,
      "Ġimportantes": 3002,
      "mail": 3003,
      "Ġsymp": 3004,
      "amp": 3005,
      "Ġstress": 3006,
      "Ġplantes": 3007,
      "ogle": 3008,
      "Ġdevrez": 3009,
      "oxy": 3010,
      "Ġformation": 3011,
      "oser": 3012,
      "Ġmort": 3013,
      "Ġchev": 3014,
      "ĠÃ©conomique": 3015,
      "hum": 3016,
      "Ġcharge": 3017,
      "orp": 3018,
      "ĠcafÃ©": 3019,
      "ĠdÃ©but": 3020,
      "Ġvoitures": 3021,
      "sy": 3022,
      "lais": 3023,
      "industrie": 3024,
      "Ġarticle": 3025,
      "ores": 3026,
      "Ã©lect": 3027,
      "\";": 3028,
      "Ġcontenant": 3029,
      "Ġaffect": 3030,
      "resse": 3031,
      "ctes": 3032,
      "heure": 3033,
      "aliser": 3034,
      "Ġten": 3035,
      "ĠsuccÃ¨s": 3036,
      "Ã¢ce": 3037,
      "Ġconnu": 3038,
      "Ġcit": 3039,
      "ĠmathÃ©matiques": 3040,
      "ĠidÃ©es": 3041,
      "oti": 3042,
      "ĠTraduisez": 3043,
      "Ġuniques": 3044,
      "ras": 3045,
      "osph": 3046,
      "arch": 3047,
      "ĠcomplÃ¨te": 3048,
      "ĠsÃ©rie": 3049,
      "Ġtendance": 3050,
      "ĠstratÃ©gies": 3051,
      "mÃ©di": 3052,
      "ĠÃ©tudiants": 3053,
      "Ġorig": 3054,
      "Ġrom": 3055,
      "Ġdorm": 3056,
      "Ġnation": 3057,
      "Ġviv": 3058,
      "andes": 3059,
      "Ġ24": 3060,
      "Ġrenfor": 3061,
      "lation": 3062,
      "Ġsurv": 3063,
      "ĠrÃ©cupÃ©rer": 3064,
      "atten": 3065,
      "assistant": 3066,
      "image": 3067,
      "Ġdanger": 3068,
      "ori": 3069,
      "Ġsites": 3070,
      "Ġpetits": 3071,
      "Ġconsul": 3072,
      "ĠprÃ¨s": 3073,
      "liquer": 3074,
      "Ġmodifier": 3075,
      "organ": 3076,
      "Ġprogrammes": 3077,
      "ĠAr": 3078,
      "Ġimplique": 3079,
      "Ġartifici": 3080,
      "Ġperformance": 3081,
      "Ġdisponibles": 3082,
      "ĠexpÃ©ri": 3083,
      "Ch": 3084,
      "aj": 3085,
      "Ġprovo": 3086,
      "Ġenreg": 3087,
      "Ġoffre": 3088,
      "olu": 3089,
      "angle": 3090,
      "Ã©ni": 3091,
      "Ġmas": 3092,
      "Ġcarbone": 3093,
      "Ġsensi": 3094,
      "ĠRob": 3095,
      "Ġconcerne": 3096,
      "Ġarticles": 3097,
      "An": 3098,
      "Ġrev": 3099,
      "ieu": 3100,
      "article": 3101,
      "icier": 3102,
      "pose": 3103,
      "//": 3104,
      "quant": 3105,
      "Ġnett": 3106,
      "osi": 3107,
      "ty": 3108,
      "Ġguerre": 3109,
      "Ġcourt": 3110,
      "Ġmeilleur": 3111,
      "cÃ©der": 3112,
      "Ġsolutions": 3113,
      "Ġtechnologies": 3114,
      "Ġpermettent": 3115,
      "intÃ©rieur": 3116,
      "ulation": 3117,
      "andom": 3118,
      "uments": 3119,
      "Ġsemaine": 3120,
      "ĠÃ©criv": 3121,
      "Ġplanif": 3122,
      "Ġfichiers": 3123,
      "oud": 3124,
      "ĠEst": 3125,
      "Ġport": 3126,
      "Ġinfluen": 3127,
      "Ġpossibles": 3128,
      "ital": 3129,
      "Ġchaleur": 3130,
      "Ġconnex": 3131,
      "ĠÂ».": 3132,
      "ĠmÃ©dias": 3133,
      "Ġsold": 3134,
      "Ġtraiter": 3135,
      "Ġremp": 3136,
      "Ġcartes": 3137,
      "inÃ©": 3138,
      "Ġstyle": 3139,
      "Ġmalad": 3140,
      "Ã¢te": 3141,
      "ĠprÃ©fÃ©rences": 3142,
      "ip": 3143,
      "Ġrevenu": 3144,
      "Ġfran": 3145,
      "Ġartiste": 3146,
      "Ġ60": 3147,
      "ĠinfÃ©ri": 3148,
      "Ã¨rent": 3149,
      "isent": 3150,
      "Ġton": 3151,
      "ercice": 3152,
      "Ġefficacement": 3153,
      "anche": 3154,
      "):": 3155,
      "ĠespÃ¨ces": 3156,
      "oph": 3157,
      "umes": 3158,
      "ĠAprÃ¨s": 3159,
      "Ġble": 3160,
      "ift": 3161,
      "hic": 3162,
      "Ġaction": 3163,
      "25": 3164,
      "ordre": 3165,
      "igu": 3166,
      "ĠQue": 3167,
      "Ġdistrib": 3168,
      "ĠMich": 3169,
      "Ġeffectu": 3170,
      "Ġdemander": 3171,
      "Ġapplication": 3172,
      "Ã´mes": 3173,
      "Ġneur": 3174,
      "Ġici": 3175,
      "Ġpersonnages": 3176,
      "oÃ»t": 3177,
      "ica": 3178,
      "Ġgenre": 3179,
      "ĠÃ©conomiques": 3180,
      "ĠrÃ©v": 3181,
      "21": 3182,
      "Ġconclusion": 3183,
      "Ġdestin": 3184,
      "ĠdiffÃ©rences": 3185,
      "Ã©cution": 3186,
      "ĠprÃ©fÃ©": 3187,
      "Ġparcour": 3188,
      "Ġmarque": 3189,
      "Ġgrandes": 3190,
      "Ġneu": 3191,
      "Ġache": 3192,
      "incl": 3193,
      "Ġsurve": 3194,
      "Ġcaus": 3195,
      "issons": 3196,
      "adies": 3197,
      "nÃ©": 3198,
      "Ġdouble": 3199,
      "ĠĠĠĠĠĠĠ": 3200,
      "Ġfrom": 3201,
      "lent": 3202,
      "Ġsent": 3203,
      "ĠemployÃ©": 3204,
      "Ġpan": 3205,
      "dition": 3206,
      "ĠtÃ©lÃ©phone": 3207,
      "ĠalÃ©atoire": 3208,
      "Ġpense": 3209,
      "Ġtendances": 3210,
      "ignes": 3211,
      "ball": 3212,
      "ĠÃ©coute": 3213,
      "LE": 3214,
      "Ġordre": 3215,
      "sp": 3216,
      "ĠrÃ©pond": 3217,
      "\">": 3218,
      "nov": 3219,
      "jonction": 3220,
      "ĠrÃ©uss": 3221,
      "ĠcommencÃ©": 3222,
      "Ġzones": 3223,
      "Ġcellules": 3224,
      "Ġmaladies": 3225,
      "ĠdÃ©penses": 3226,
      "Ġcommentaires": 3227,
      "rain": 3228,
      "ryp": 3229,
      "Ġastron": 3230,
      "ĠMaintenant": 3231,
      "Ġlogiciel": 3232,
      "unes": 3233,
      "ĠingrÃ©dients": 3234,
      "Ġhor": 3235,
      "ĠAm": 3236,
      "Ġexactement": 3237,
      "Ġyeux": 3238,
      "Ġtourn": 3239,
      "Ġ17": 3240,
      "inc": 3241,
      "intÃ©rÃªt": 3242,
      "Ġavocat": 3243,
      "Ġpersonnage": 3244,
      "Ġfort": 3245,
      "avid": 3246,
      "Ġcommerci": 3247,
      "ĠmatÃ©riaux": 3248,
      "Ġpotentiel": 3249,
      "Ġfilms": 3250,
      "Ġouver": 3251,
      "Ã©tu": 3252,
      "dra": 3253,
      "Ġcontact": 3254,
      "ĠreprÃ©sente": 3255,
      "origine": 3256,
      "Si": 3257,
      "ĠJames": 3258,
      "importance": 3259,
      "čĠ": 3260,
      "ĠdurÃ©e": 3261,
      "Ġdort": 3262,
      "Ġcharg": 3263,
      "ĠsÃ©quence": 3264,
      "ĠconsidÃ©rÃ©": 3265,
      "istre": 3266,
      "Ġcelui": 3267,
      "ft": 3268,
      "Ġjoueurs": 3269,
      "tÃ©ra": 3270,
      "Ġcurieux": 3271,
      "Script": 3272,
      "Ġbut": 3273,
      "illiam": 3274,
      "Ġlaiss": 3275,
      "avantage": 3276,
      "jectif": 3277,
      "Ġmontant": 3278,
      "Ġliqu": 3279,
      "Ġelse": 3280,
      "Ã©hic": 3281,
      "uation": 3282,
      "Ġmarin": 3283,
      "Ġimportants": 3284,
      "iant": 3285,
      "Ġmondiale": 3286,
      "Ġoptimis": 3287,
      "Ġabs": 3288,
      "yst": 3289,
      "mÃ©e": 3290,
      "num": 3291,
      "Ġrouge": 3292,
      "gÃ¨ne": 3293,
      "Ġattra": 3294,
      "Ġpolitici": 3295,
      "otidi": 3296,
      "čĠč": 3297,
      "string": 3298,
      "ĠCombien": 3299,
      "Ġaucun": 3300,
      "Ġresta": 3301,
      "ĠChaque": 3302,
      "Ġinfirm": 3303,
      "Ġdos": 3304,
      "ĠannÃ©e": 3305,
      "Ġloi": 3306,
      "ĠÃ©lectron": 3307,
      "wift": 3308,
      "Ġentier": 3309,
      "Ġtriste": 3310,
      "Ġintern": 3311,
      "Ġcertaine": 3312,
      "Ã©ment": 3313,
      "istance": 3314,
      "ĠpiÃ¨ce": 3315,
      "anim": 3316,
      "ĠboÃ®": 3317,
      "ĠSh": 3318,
      "Ġvend": 3319,
      "][": 3320,
      "ĠSe": 3321,
      "Ġsac": 3322,
      "iennent": 3323,
      "Ġpapier": 3324,
      "cule": 3325,
      "Ġerreurs": 3326,
      "ael": 3327,
      "Ġbru": 3328,
      "ĠÃ©tr": 3329,
      "Ġaucune": 3330,
      "ĠWilliam": 3331,
      "Ġnoir": 3332,
      "ĠvÃ©hic": 3333,
      "ĠgrÃ¢ce": 3334,
      "cevoir": 3335,
      "entraÃ®": 3336,
      "Ġvirtu": 3337,
      "cas": 3338,
      "Ġ...": 3339,
      "Ġsympt": 3340,
      "LAB": 3341,
      "men": 3342,
      "Ġgros": 3343,
      "ĠRich": 3344,
      "ATLAB": 3345,
      "Ġefficaces": 3346,
      "Ġoffrir": 3347,
      "ĠÃ©missions": 3348,
      "Ġquotidi": 3349,
      "Ġlois": 3350,
      "cho": 3351,
      "Ġtel": 3352,
      "Ġaller": 3353,
      "ĠÃ©valuer": 3354,
      "ĠDavid": 3355,
      "Ġdistin": 3356,
      "ibilitÃ©": 3357,
      "Ġcourant": 3358,
      "ĠfrÃ©quence": 3359,
      "Ġscientifiques": 3360,
      "ĠmathÃ©matique": 3361,
      "word": 3362,
      "Ġstatis": 3363,
      "mosph": 3364,
      "Ġmillions": 3365,
      "ĠOu": 3366,
      "ĠInternet": 3367,
      "Ġseront": 3368,
      "abeth": 3369,
      "Ġcrit": 3370,
      "Ġray": 3371,
      "Ġchanger": 3372,
      "Ġcam": 3373,
      "Ġboit": 3374,
      "objet": 3375,
      "ĠJavaScript": 3376,
      "ĠexÃ©cu": 3377,
      "pro": 3378,
      "Ġdomaines": 3379,
      "Ġajus": 3380,
      "Ġrac": 3381,
      "Ġboucle": 3382,
      "Ġimpliqu": 3383,
      "ĠGoogle": 3384,
      "Ġperte": 3385,
      "Ġimage": 3386,
      "arah": 3387,
      "Ġparam": 3388,
      "ĠcontrÃ´": 3389,
      "Ġconnaiss": 3390,
      "Ġchiffre": 3391,
      "ĠMATLAB": 3392,
      "Ġdroits": 3393,
      "ĠmÃ©moire": 3394,
      "ĠrÃ©duction": 3395,
      "Ġtrou": 3396,
      "ĠÃ©motionn": 3397,
      "Ġconseils": 3398,
      "Ġprot": 3399,
      "urb": 3400,
      "Ġavion": 3401,
      "exÃ©cution": 3402,
      "Ġpou": 3403,
      "Ġgrands": 3404,
      "ĠdÃ©crire": 3405,
      "avez": 3406,
      "Ġsouff": 3407,
      "ĠThom": 3408,
      "Ġprote": 3409,
      "Ġbiais": 3410,
      "oure": 3411,
      "isc": 3412,
      "Ġaltern": 3413,
      "tirer": 3414,
      "ĠsiÃ¨": 3415,
      "ĠdÃ©tails": 3416,
      "ĠCharles": 3417,
      "ger": 3418,
      "agement": 3419,
      "ĠAssurez": 3420,
      "itent": 3421,
      "ĠrÃ©par": 3422,
      "ĠrÃ©glement": 3423,
      "Ġtransport": 3424,
      "Ġgarder": 3425,
      "ail": 3426,
      "ĠdÃ©taillÃ©e": 3427,
      "ancer": 3428,
      "ĠGr": 3429,
      "time": 3430,
      "Ġimpl": 3431,
      "itiÃ©": 3432,
      "ĠSt": 3433,
      "Ġanti": 3434,
      "Ġgrimp": 3435,
      "clÃ©": 3436,
      "ĠComp": 3437,
      "Ġtaxi": 3438,
      "tale": 3439,
      "ynam": 3440,
      "Ġlogiciels": 3441,
      "Ã¨tre": 3442,
      "ĠexcitÃ©": 3443,
      "ĠMichael": 3444,
      "uel": 3445,
      "ĠsÃ©par": 3446,
      "prÃ©": 3447,
      "Ġbud": 3448,
      "ĠopÃ©ra": 3449,
      "ensez": 3450,
      "Ġapprendre": 3451,
      "Ġastronaute": 3452,
      "fond": 3453,
      "Ġblanc": 3454,
      "Ġgam": 3455,
      "nez": 3456,
      "ĠAvec": 3457,
      "ĠfaÃ§ons": 3458,
      "Ġdormir": 3459,
      "Ġsuivants": 3460,
      "Ġanci": 3461,
      "ĠappelÃ©": 3462,
      "CT": 3463,
      "Ġlignes": 3464,
      "Ġpuzz": 3465,
      "ĠrÃ©ponses": 3466,
      "ĠCS": 3467,
      "cierge": 3468,
      "ĠprÃ©s": 3469,
      "Ã©ducation": 3470,
      "Ġconcierge": 3471,
      "Ġmachine": 3472,
      "ĠKar": 3473,
      "Ġcharp": 3474,
      "Ġcombinaison": 3475,
      "ww": 3476,
      "we": 3477,
      "ĠsupplÃ©mentaire": 3478,
      "Ġfemmes": 3479,
      "ĠâĢ": 3480,
      "Ġsoldat": 3481,
      "Ã¨nes": 3482,
      "Ġconsci": 3483,
      "Ġconfiance": 3484,
      "')": 3485,
      "Ġdirectement": 3486,
      "Ġcherch": 3487,
      "Ġextr": 3488,
      "Ġoption": 3489,
      "Ġprofessionnel": 3490,
      "ĠSarah": 3491,
      "ĠRichard": 3492,
      "Ġcharpenti": 3493,
      "Ġfav": 3494,
      "aments": 3495,
      "Ġgraphique": 3496,
      "Ġparfois": 3497,
      "Ġveux": 3498,
      "ĠThomas": 3499,
      "Ġstring": 3500,
      "Ã¨se": 3501,
      "amÃ©li": 3502,
      "ĠCl": 3503,
      "://": 3504,
      "oie": 3505,
      "String": 3506,
      "Ġsoli": 3507,
      "Ã©lÃ¨": 3508,
      "Une": 3509,
      "Ġbour": 3510,
      "ĠRobert": 3511,
      "Ġait": 3512,
      "Ġcais": 3513,
      "Ġmaladie": 3514,
      "idus": 3515,
      "Ġcr": 3516,
      "univers": 3517,
      "Ġnuit": 3518,
      "Ġvendre": 3519,
      "Ġgram": 3520,
      "ult": 3521,
      "ĠprÃ©dire": 3522,
      "accÃ¨s": 3523,
      "Ġdevons": 3524,
      "intelligence": 3525,
      "Ġhaute": 3526,
      "Ġpermettra": 3527,
      "ĠÃ©crivain": 3528,
      "Ġchauffeur": 3529,
      "agner": 3530,
      "ĠpoÃ¨te": 3531,
      "Ġatta": 3532,
      "Ġdevraient": 3533,
      "ĠRub": 3534,
      "ologique": 3535,
      "Ã©conomie": 3536,
      "ĠdÃ©couver": 3537,
      "ze": 3538,
      "ĠprÃ©si": 3539,
      "Ġcollab": 3540,
      "Ġsh": 3541,
      "Ġpuisse": 3542,
      "ĠZ": 3543,
      "ug": 3544,
      "Ġpetites": 3545,
      "Ġmontre": 3546,
      "ĠmÃ©tÃ©": 3547,
      "intes": 3548,
      "Ġcommuni": 3549,
      "Ġplas": 3550,
      "ĠcrÃ©Ã©": 3551,
      "Ġ},": 3552,
      "col": 3553,
      "Ġmoteur": 3554,
      "Ġfix": 3555,
      "ĠCertaines": 3556,
      "sh": 3557,
      "Ġpubli": 3558,
      "Ġessayer": 3559,
      "Ġcelle": 3560,
      "HP": 3561,
      "hab": 3562,
      "Ġprincipal": 3563,
      "till": 3564,
      "ĠnumÃ©ro": 3565,
      "ĠFr": 3566,
      "Ġcoll": 3567,
      "annÃ©e": 3568,
      "ome": 3569,
      "lisabeth": 3570,
      "Ġsommeil": 3571,
      "ength": 3572,
      "\");": 3573,
      "Ġmic": 3574,
      "ĠÃ©cl": 3575,
      "ĠThe": 3576,
      "fic": 3577,
      "ĠconsÃ©quences": 3578,
      "Ġordinateurs": 3579,
      "Ġami": 3580,
      "ĠpiÃ¨ces": 3581,
      "ĠbibliothÃ¨ques": 3582,
      "ĠJenn": 3583,
      "ortun": 3584,
      "Ġmagasin": 3585,
      "sta": 3586,
      "Ġtraditionn": 3587,
      "].": 3588,
      "ĠrÃ©guliÃ¨rement": 3589,
      "ĠsymptÃ´mes": 3590,
      "Ġfacil": 3591,
      "Ġdevenir": 3592,
      "tal": 3593,
      "introduction": 3594,
      "ĠSus": 3595,
      "Voici": 3596,
      "erm": 3597,
      "Ġfun": 3598,
      "mettre": 3599,
      "Ġdouleur": 3600,
      "Ġproch": 3601,
      "Ġcompagn": 3602,
      "ĠprotÃ©": 3603,
      "ĠempÃª": 3604,
      "atri": 3605,
      "ĠthÃ©orie": 3606,
      "gne": 3607,
      "ĠSwift": 3608,
      "ĠJess": 3609,
      "ĠQuels": 3610,
      "Ġenten": 3611,
      "stru": 3612,
      "ĠprobabilitÃ©": 3613,
      "Ġremar": 3614,
      "ĠderniÃ¨re": 3615,
      "ĠJose": 3616,
      "urance": 3617,
      "ĠtroisiÃ¨me": 3618,
      "Ġmob": 3619,
      "ĠgÃ©nÃ©": 3620,
      "Ġfour": 3621,
      "adap": 3622,
      "Ġexpri": 3623,
      "Ġpieds": 3624,
      "identi": 3625,
      "exercice": 3626,
      "ĠÃ©motions": 3627,
      "ĠappelÃ©e": 3628,
      "Ġdiverses": 3629,
      "yez": 3630,
      "Ġgauche": 3631,
      "ĠBarb": 3632,
      "tÃ©rÃªts": 3633,
      "Ã©riques": 3634,
      "ĠXML": 3635,
      "ĠmÃ©dicaments": 3636,
      "vi": 3637,
      "identif": 3638,
      "ĠlÃ©gumes": 3639,
      "Re": 3640,
      "Ġpotentielles": 3641,
      "ĠmÃ©ta": 3642,
      "Ġendroit": 3643,
      "illant": 3644,
      "esprit": 3645,
      "fois": 3646,
      "lÃ©ch": 3647,
      "Ġconserv": 3648,
      "nant": 3649,
      "ĠNew": 3650,
      "Ġclassification": 3651,
      "ception": 3652,
      "Ġconcept": 3653,
      "Ġpopulaire": 3654,
      "Ġpuissance": 3655,
      "Ġorigin": 3656,
      "ĠJoseph": 3657,
      "ĠÃ©thiques": 3658,
      "ĠrÃ©ussi": 3659,
      "atrici": 3660,
      "Ġvoul": 3661,
      "Ġdiver": 3662,
      "ĠbÃ¢": 3663,
      "ĠPHP": 3664,
      "eler": 3665,
      "Ġfournit": 3666,
      "ĠdÃ©chets": 3667,
      "osition": 3668,
      "Ġviol": 3669,
      "rimer": 3670,
      "cessi": 3671,
      "Ġveut": 3672,
      "exemple": 3673,
      "inda": 3674,
      "Ġvu": 3675,
      "Ġbarman": 3676,
      "ĠlittÃ©ra": 3677,
      "Ã¨de": 3678,
      "ĠcommunautÃ©": 3679,
      "Ġmasse": 3680,
      "ude": 3681,
      "Åĵur": 3682,
      "Ġmauvais": 3683,
      "Ġcomplet": 3684,
      "andid": 3685,
      "ĠJessica": 3686,
      "ifer": 3687,
      "appro": 3688,
      "Ġmentale": 3689,
      "Ġdevriez": 3690,
      "ĠKaren": 3691,
      "rise": 3692,
      "atricia": 3693,
      "ĠId": 3694,
      "ĠconsidÃ©rer": 3695,
      "ĠBarbara": 3696,
      "ĠnumÃ©rique": 3697,
      "Ġvoix": 3698,
      "Ġcomprennent": 3699,
      "Ġautant": 3700,
      "ĠdÃ©claration": 3701,
      "ral": 3702,
      "iditÃ©": 3703,
      "investissement": 3704,
      "ĠamÃ©ricain": 3705,
      "ĠRuby": 3706,
      "itant": 3707,
      "Ġformes": 3708,
      "Ġartificielle": 3709,
      "ĠinfirmiÃ¨re": 3710,
      "Ġmanger": 3711,
      "Ġsommes": 3712,
      "ĠSusan": 3713,
      "Ġdiscu": 3714,
      "ographie": 3715,
      "Ġpleut": 3716,
      "Ġcourir": 3717,
      "ĠcritÃ¨res": 3718,
      "ĠÃ©levÃ©e": 3719,
      "ĠComme": 3720,
      "antique": 3721,
      "ĠPatricia": 3722,
      "Ġriches": 3723,
      "Ġdavantage": 3724,
      "ĠliÃ©s": 3725,
      "ĠpossibilitÃ©": 3726,
      "pie": 3727,
      "Ġexigences": 3728,
      "Ġinstructions": 3729,
      "dul": 3730,
      "augment": 3731,
      "ĠprÃ©v": 3732,
      "iÃ©e": 3733,
      "ricitÃ©": 3734,
      "ĠdÃ©tecter": 3735,
      "ĠString": 3736,
      "Ġsuivi": 3737,
      "Ġdroite": 3738,
      "Ġmodus": 3739,
      "Ġrencont": 3740,
      "Ġpsy": 3741,
      "::": 3742,
      "Ġoblig": 3743,
      "ĠAlors": 3744,
      "ĠLinda": 3745,
      "ĠJennifer": 3746,
      "Ġdifficul": 3747,
      "Ġsout": 3748,
      "22": 3749,
      "ctive": 3750,
      "Ġcible": 3751,
      "Ġindividus": 3752,
      "Ġattrib": 3753,
      "}}": 3754,
      "Ġtenir": 3755,
      "alog": 3756,
      "Ġclair": 3757,
      "isÃ©e": 3758,
      "ĠdÃ©fi": 3759,
      "mission": 3760,
      "Ġcolonnes": 3761,
      "ĠÃ©lectricien": 3762,
      "ageux": 3763,
      "ĠPlus": 3764,
      "ĠcomplÃ¨tement": 3765,
      "Ġcomprends": 3766,
      "quent": 3767,
      "];": 3768,
      "Ġpommes": 3769,
      "bot": 3770,
      "rage": 3771,
      "Ġfabri": 3772,
      "ĠUtiliser": 3773,
      "oyez": 3774,
      "Ġaujourd": 3775,
      "Ġdef": 3776,
      "Ġbac": 3777,
      "ĠfranÃ§": 3778,
      "Ġlesquelles": 3779,
      "Ġinten": 3780,
      "Ã©b": 3781,
      "Ãªtements": 3782,
      "ĠdiffÃ©rent": 3783,
      "DD": 3784,
      "Ġhabitu": 3785,
      "ĠrÃ©alitÃ©": 3786,
      "Ã©pend": 3787,
      "Ġconstitu": 3788,
      "ĠrÃ©pÃ©": 3789,
      "vÃ©": 3790,
      "Ġphysiques": 3791,
      "Ġdescription": 3792,
      "Ġbois": 3793,
      "Ġbles": 3794,
      "ĠCol": 3795,
      "Ġâ": 3796,
      "espÃ¨re": 3797,
      "Ġincluent": 3798,
      "uez": 3799,
      "ĠavancÃ©es": 3800,
      "Ġretour": 3801,
      "cident": 3802,
      "Ġcandid": 3803,
      "Ġdir": 3804,
      "aller": 3805,
      "Ġsom": 3806,
      "Ġstim": 3807,
      "ĠQuelles": 3808,
      "Ġprotection": 3809,
      "Ġmoyens": 3810,
      "Ġaccep": 3811,
      "Ġincon": 3812,
      "informations": 3813,
      "Ġchien": 3814,
      "RO": 3815,
      "Ġgagner": 3816,
      "Ġconfl": 3817,
      "Ġconstruire": 3818,
      "Ã§ant": 3819,
      "Ġscore": 3820,
      "Ġpoll": 3821,
      "ĠÃ©vid": 3822,
      "Ġpatients": 3823,
      "Ġlongue": 3824,
      "Ġparc": 3825,
      "Ġinternation": 3826,
      "idÃ©e": 3827,
      "row": 3828,
      "Ġaffecter": 3829,
      "rice": 3830,
      "Ġplage": 3831,
      "ĠÃīta": 3832,
      "renez": 3833,
      "Ġve": 3834,
      "Ġchemin": 3835,
      "Ġcircul": 3836,
      "chÃ©s": 3837,
      "Ġmontrer": 3838,
      "Ġajou": 3839,
      "ĠplanÃ¨te": 3840,
      "Ġaspe": 3841,
      "Ġpuzzle": 3842,
      "ĠdÃ©l": 3843,
      "Ġemb": 3844,
      "mont": 3845,
      "orme": 3846,
      "Ġsimilaires": 3847,
      "sie": 3848,
      "Ġappareils": 3849,
      "Ġpermettant": 3850,
      "err": 3851,
      "ctures": 3852,
      "pÃ©ration": 3853,
      "Ġindustri": 3854,
      "Ġexcell": 3855,
      "},": 3856,
      "Ġcheveux": 3857,
      "ĠvÃ©g": 3858,
      "activitÃ©": 3859,
      "ick": 3860,
      "auff": 3861,
      "Ġrelig": 3862,
      "tout": 3863,
      "ĠIdentif": 3864,
      "ik": 3865,
      "Ġlongtemps": 3866,
      "enf": 3867,
      "tables": 3868,
      "Ġresponsable": 3869,
      "item": 3870,
      "ĠÃ©levÃ©s": 3871,
      "Ġchance": 3872,
      "itaires": 3873,
      "rale": 3874,
      "ĠÃ©lÃ¨": 3875,
      "ĠreÃ§": 3876,
      "Ġmorce": 3877,
      "Ġcharpentier": 3878,
      "uro": 3879,
      "ĠÃīc": 3880,
      "Ġmusicien": 3881,
      "Ġtelle": 3882,
      "Ġsentir": 3883,
      "Ġfr": 3884,
      "ĠaccÃ¨s": 3885,
      "Ãªter": 3886,
      "lam": 3887,
      "Ġpost": 3888,
      "ordonn": 3889,
      "rier": 3890,
      "Ġreconnaissance": 3891,
      "Ġcontinuer": 3892,
      "Ġtests": 3893,
      "issement": 3894,
      "ĠconÃ§": 3895,
      "Ġhumaine": 3896,
      "explo": 3897,
      "ĠscÃ©n": 3898,
      "Ġir": 3899,
      "curren": 3900,
      "ĠSur": 3901,
      "oubli": 3902,
      "lie": 3903,
      "ĠmÃ©canicien": 3904,
      "Ġpersonnelles": 3905,
      "Ġutilisation": 3906,
      "ĠÂ»,": 3907,
      "Ã¨le": 3908,
      "Ġdimin": 3909,
      "Ġaura": 3910,
      "Ġgagn": 3911,
      "Ġant": 3912,
      "Ġconvient": 3913,
      "Ġexist": 3914,
      "ĠlimitÃ©": 3915,
      "Ġ500": 3916,
      "Ġjouera": 3917,
      "Ġdur": 3918,
      "Ġ=>": 3919,
      "arn": 3920,
      "gin": 3921,
      "erce": 3922,
      "Ġprincipalement": 3923,
      "Ġpolicier": 3924,
      "ĠMerci": 3925,
      "Ġpoliticien": 3926,
      "Ġdevient": 3927,
      "Ġpolice": 3928,
      "Ġhauteur": 3929,
      "sements": 3930,
      "Ġconnaissances": 3931,
      "ende": 3932,
      "Ã©quation": 3933,
      "apon": 3934,
      "Ġfaisant": 3935,
      "ĠElisabeth": 3936,
      "ĠpropriÃ©ta": 3937,
      "Ġhumain": 3938,
      "Ġobjectif": 3939,
      "Ġforte": 3940,
      "ln": 3941,
      "Ġcultures": 3942,
      "Ġmicro": 3943,
      "Ġmi": 3944,
      "riques": 3945,
      "ĠGÃ©nÃ¨re": 3946,
      "Ġsouha": 3947,
      "ĠCertains": 3948,
      "Ġrenouv": 3949,
      "option": 3950,
      "Ġessentiel": 3951,
      "Ġmani": 3952,
      "Ġenfant": 3953,
      "ount": 3954,
      "Ã´ts": 3955,
      "Ġjoueur": 3956,
      "Ġvrai": 3957,
      "ĠpropriÃ©tÃ©s": 3958,
      "Ġimpos": 3959,
      "Ġconvers": 3960,
      "Ġconstruction": 3961,
      "angÃ©": 3962,
      "huile": 3963,
      "Ġgamme": 3964,
      "Ġexplication": 3965,
      "vement": 3966,
      "Ġcru": 3967,
      "Ġremb": 3968,
      "Ġbalis": 3969,
      "tps": 3970,
      "inaire": 3971,
      "ĠPrÃ©": 3972,
      "Ġfourni": 3973,
      "Ġfle": 3974,
      "trer": 3975,
      "Ex": 3976,
      "ls": 3977,
      "cepti": 3978,
      "ĠfinanciÃ¨re": 3979,
      "Ġdynam": 3980,
      "ĠreprÃ©senter": 3981,
      "ettez": 3982,
      "ject": 3983,
      "lus": 3984,
      "Ġtiss": 3985,
      "Ġconsulter": 3986,
      "ĠcÃ©lÃ¨": 3987,
      "Nous": 3988,
      "aÃ¯": 3989,
      "Ġremplacer": 3990,
      "Ġsimplif": 3991,
      "Ġpon": 3992,
      "iÃ©s": 3993,
      "Ġplat": 3994,
      "Ġsuite": 3995,
      "ID": 3996,
      "Ġcouche": 3997,
      "Ġsolaire": 3998,
      "ĠtrouvÃ©": 3999,
      "Ġmol": 4000,
      "att": 4001,
      "ary": 4002,
      "Ġimplications": 4003,
      "Ġdernier": 4004,
      "aus": 4005,
      "ĠÃ©limin": 4006,
      "expression": 4007,
      "centage": 4008,
      "Ġfera": 4009,
      "Ġpersonnel": 4010,
      "vÃ©ni": 4011,
      "ĠpoÃ¨me": 4012,
      "Ġconnexion": 4013,
      "Ġdirection": 4014,
      "vÃ©nients": 4015,
      "oritÃ©": 4016,
      "Ġpsych": 4017,
      "Ġvolu": 4018,
      "ĠÃ©tabl": 4019,
      "ES": 4020,
      "ĠrÃ©gions": 4021,
      "Ġdifficiles": 4022,
      "off": 4023,
      "ost": 4024,
      "ĠresponsabilitÃ©": 4025,
      "Ã©lectricitÃ©": 4026,
      "aisons": 4027,
      "Ġinformatique": 4028,
      "ĠappropriÃ©": 4029,
      "Ġvarier": 4030,
      "Ġcentre": 4031,
      "Ġwh": 4032,
      "lÃ©g": 4033,
      "ĠscÃ©nari": 4034,
      "ĠexpÃ©riences": 4035,
      "ĠcrÃ©e": 4036,
      "Ġtotale": 4037,
      "Data": 4038,
      "ĠPeut": 4039,
      "Ġinv": 4040,
      "Ġpeint": 4041,
      "cre": 4042,
      "ĠÃ©limination": 4043,
      "Ġpresque": 4044,
      "ĠDonne": 4045,
      "pi": 4046,
      "ardez": 4047,
      "ayez": 4048,
      "agir": 4049,
      "tionnaire": 4050,
      "ĠdÃ©r": 4051,
      "ĠparamÃ¨tres": 4052,
      "ctivitÃ©": 4053,
      "agraph": 4054,
      "dents": 4055,
      "ystem": 4056,
      "Ġcm": 4057,
      "intÃ©g": 4058,
      "occup": 4059,
      "ĠmÃ©tÃ©or": 4060,
      "ĠvÃªtements": 4061,
      "Ġcaissier": 4062,
      "Ġinterac": 4063,
      "Ġbudget": 4064,
      "Ġprojets": 4065,
      "Ġuniquement": 4066,
      "char": 4067,
      "Ġbre": 4068,
      "aider": 4069,
      "ĠÃ©tat": 4070,
      "Ġcardi": 4071,
      "Ġtoi": 4072,
      "ĠMon": 4073,
      "aginez": 4074,
      "Ġprincipales": 4075,
      "Ġhabit": 4076,
      "Ġcuill": 4077,
      "ĠÃ©lectrique": 4078,
      "])": 4079,
      "Ġciv": 4080,
      "Ġflu": 4081,
      "Ġconcevoir": 4082,
      "Ġvilles": 4083,
      "Ġlait": 4084,
      "AR": 4085,
      "Par": 4086,
      "entraÃ®nement": 4087,
      "Ġpourrez": 4088,
      "ĠmÃ©lange": 4089,
      "ancement": 4090,
      "ection": 4091,
      "Ġphoto": 4092,
      "Ġmesurer": 4093,
      "Ġglobale": 4094,
      "Ã©tat": 4095,
      "ĠdÃ©ten": 4096,
      "Ġsembl": 4097,
      "Ġgraphiques": 4098,
      "Ġtoll": 4099,
      "formes": 4100,
      "Ġpopulaires": 4101,
      "ĠdÃ©crit": 4102,
      "NT": 4103,
      "Ġcondition": 4104,
      "Ġmotiv": 4105,
      "Ġtollens": 4106,
      "Ġsociale": 4107,
      "Ġventes": 4108,
      "cool": 4109,
      "ĠprÃ©senter": 4110,
      "['": 4111,
      "posez": 4112,
      "Ġvect": 4113,
      "ĠIm": 4114,
      "blement": 4115,
      "Ġanimal": 4116,
      "ote": 4117,
      "ĠRÃ©s": 4118,
      "Ar": 4119,
      "ĠrÃ©Ã©criture": 4120,
      "vention": 4121,
      "Ġsignal": 4122,
      "Ġlut": 4123,
      "ĠdÃ©g": 4124,
      "ĠrÃª": 4125,
      "ĠderniÃ¨res": 4126,
      "ĠprÃ©sente": 4127,
      "acitÃ©s": 4128,
      "Ġinvestiss": 4129,
      "Ġmultipli": 4130,
      "Ġsuscepti": 4131,
      "Ġpaiement": 4132,
      "due": 4133,
      "ĠintÃ©rÃªts": 4134,
      "Ġprincipaux": 4135,
      "Ġcommuniquer": 4136,
      "tier": 4137,
      "Ġrecherches": 4138,
      "Ġaccom": 4139,
      "Ġopportun": 4140,
      "Ġcauser": 4141,
      "Ã©val": 4142,
      "ĠAd": 4143,
      "iff": 4144,
      "Ġrepas": 4145,
      "Ġchiens": 4146,
      "Ġfonctionnent": 4147,
      "amb": 4148,
      "ext": 4149,
      "ĠcomplexitÃ©": 4150,
      "Ġmentionn": 4151,
      "Ã©cran": 4152,
      "Ġpositif": 4153,
      "Ġmanipul": 4154,
      "Ġense": 4155,
      "ight": 4156,
      "ĠEss": 4157,
      "igme": 4158,
      "Ġverbe": 4159,
      "Ġsentiments": 4160,
      "Ġphotos": 4161,
      "Ġloin": 4162,
      "Ġpertinentes": 4163,
      "Ġversion": 4164,
      "Ġnotes": 4165,
      "99": 4166,
      "ĠamÃ©ricaine": 4167,
      "oriser": 4168,
      "Ġlangues": 4169,
      "URL": 4170,
      "print": 4171,
      "`.": 4172,
      "ĠĠĠĠĠĠĠĠĠĠ": 4173,
      "Ġspati": 4174,
      "Ġpersonnelle": 4175,
      "Ġpenser": 4176,
      "rim": 4177,
      "30": 4178,
      "liquez": 4179,
      "auteur": 4180,
      "uc": 4181,
      "ĠimplÃ©ment": 4182,
      "Ġaugmentation": 4183,
      "Ġargent": 4184,
      "($": 4185,
      "Ġdic": 4186,
      "Ġlimites": 4187,
      "Ġciel": 4188,
      "Ġcout": 4189,
      "jectifs": 4190,
      "Ġprofessionnels": 4191,
      "Ġintellig": 4192,
      "ĠdiffÃ©rente": 4193,
      "Ġrende": 4194,
      "chauff": 4195,
      "Ġprinci": 4196,
      "ĠmoitiÃ©": 4197,
      "ĠAjoutez": 4198,
      "aume": 4199,
      "Ġ+=": 4200,
      "Ã©volution": 4201,
      "-|": 4202,
      "ativement": 4203,
      "rem": 4204,
      "Ġenregist": 4205,
      "information": 4206,
      "oit": 4207,
      "Ġsituations": 4208,
      "ĠentrÃ©e": 4209,
      "Ġfourniss": 4210,
      "br": 4211,
      "Ġdurable": 4212,
      "Ġsucre": 4213,
      "ĠrecommandÃ©": 4214,
      "60": 4215,
      "Ġchaud": 4216,
      "vision": 4217,
      "Ġpollution": 4218,
      "Ġsociales": 4219,
      "terie": 4220,
      "umer": 4221,
      "ody": 4222,
      "Ġsin": 4223,
      "Ġsort": 4224,
      "verse": 4225,
      "Ġexper": 4226,
      "hÃ©r": 4227,
      "Ġder": 4228,
      "ĠPuis": 4229,
      "Ġgramm": 4230,
      "oot": 4231,
      "ĠbasÃ©": 4232,
      "ĠCO": 4233,
      "ĠbasÃ©e": 4234,
      "Ġcapit": 4235,
      "ĠcÃ´tÃ©s": 4236,
      "cala": 4237,
      "ĠrÃ©flÃ©ch": 4238,
      "Ġdurables": 4239,
      "Ġquelles": 4240,
      "ĠappropriÃ©e": 4241,
      "ĠactivitÃ©": 4242,
      "aritÃ©": 4243,
      "acts": 4244,
      "Ġstr": 4245,
      "Ġfro": 4246,
      "Ġparten": 4247,
      "Ġalimentaires": 4248,
      "Ġapprofond": 4249,
      "ordinateur": 4250,
      "Ġtrier": 4251,
      "ĠprotÃ©ines": 4252,
      "Ġsoutien": 4253,
      "ĠpÃ©n": 4254,
      "jac": 4255,
      "Ġconduire": 4256,
      "ilib": 4257,
      "hÃ©": 4258,
      "onner": 4259,
      "Ġouv": 4260,
      "Ġstand": 4261,
      "ĠPers": 4262,
      "ĠmÃªmes": 4263,
      "Ġnote": 4264,
      "Ġabord": 4265,
      "Ġbanque": 4266,
      "Ġregard": 4267,
      "Ġactuel": 4268,
      "Ġformer": 4269,
      "Ġinnov": 4270,
      "Ġjur": 4271,
      "Ġoptim": 4272,
      "Ġavaient": 4273,
      "ienne": 4274,
      "title": 4275,
      "Ġfinal": 4276,
      "Ġ80": 4277,
      "Ġfinanciers": 4278,
      "ots": 4279,
      "Ġnommez": 4280,
      "tig": 4281,
      "Ġstockage": 4282,
      "ĠÃ©tudes": 4283,
      "Ġcuire": 4284,
      "Ġhistorique": 4285,
      "Ġcadre": 4286,
      "isÃ©s": 4287,
      "Ġfau": 4288,
      "Ġfemme": 4289,
      "Ġarbres": 4290,
      "ret": 4291,
      "ĠfinanciÃ¨res": 4292,
      "ly": 4293,
      "ortÃ©": 4294,
      "Ġglu": 4295,
      "ĠforÃªt": 4296,
      "ĠrÃ©ellement": 4297,
      "ĠÃ©gal": 4298,
      "Ġcomparer": 4299,
      "Ġmilieu": 4300,
      "elon": 4301,
      "mosphÃ¨re": 4302,
      "Ġcritique": 4303,
      "ia": 4304,
      "ĠboÃ®te": 4305,
      "ilibre": 4306,
      "ouvoir": 4307,
      "ĠcapacitÃ©s": 4308,
      "Ġbless": 4309,
      "Ġmagn": 4310,
      "Ġfrapp": 4311,
      "Al": 4312,
      "Ġaim": 4313,
      "Ġcontinue": 4314,
      "Ġcollec": 4315,
      "Ġvolume": 4316,
      "80": 4317,
      "ple": 4318,
      "ĠnuclÃ©": 4319,
      "rac": 4320,
      "ĠbactÃ©ri": 4321,
      "ĠÃ©lÃ¨ves": 4322,
      "Ġsection": 4323,
      "rest": 4324,
      "ĠvÃ©gÃ©t": 4325,
      "Ġparagraph": 4326,
      "agnos": 4327,
      "Ġmanque": 4328,
      "itude": 4329,
      "Ġdeg": 4330,
      "Ġpartager": 4331,
      "ĠgravitÃ©": 4332,
      "entement": 4333,
      "cons": 4334,
      "date": 4335,
      "Ġsignification": 4336,
      "Ġneurones": 4337,
      "ĠdÃ©finir": 4338,
      "ĠÃ©vent": 4339,
      "Ġbord": 4340,
      "exploitation": 4341,
      "tie": 4342,
      "Ġconcentrer": 4343,
      "erne": 4344,
      "Ġwe": 4345,
      "up": 4346,
      "Ġdeven": 4347,
      "Ġprincipale": 4348,
      "Ġmouvements": 4349,
      "Ġkil": 4350,
      "Ġalimentaire": 4351,
      "ĠapprÃ©": 4352,
      "Ġrechercher": 4353,
      "quÃ©s": 4354,
      "Ġhistoriques": 4355,
      "ĠprÃ©cise": 4356,
      "antill": 4357,
      "Ġliquide": 4358,
      "ĠChine": 4359,
      "Ġvois": 4360,
      "Ġlaisser": 4361,
      "Ġhommes": 4362,
      "Ġconjonction": 4363,
      "dice": 4364,
      "angez": 4365,
      "Ġtasse": 4366,
      "Ġraisonnement": 4367,
      "ĠdÃ©placer": 4368,
      "Ġred": 4369,
      "Ġstatistiques": 4370,
      "ises": 4371,
      "ĠamÃ©lior": 4372,
      "Ġexplorer": 4373,
      "emb": 4374,
      "ĠderriÃ¨re": 4375,
      "ĠmÃ¨tres": 4376,
      "Ã¨tes": 4377,
      "Ġactuelle": 4378,
      "ĠFrance": 4379,
      "iens": 4380,
      "Ġsimilaire": 4381,
      "ĠopÃ©rations": 4382,
      "ĠdÃ»": 4383,
      "Ġpourcentage": 4384,
      "Ġmessages": 4385,
      "ĠCar": 4386,
      "Ġnormes": 4387,
      "set": 4388,
      "Ġadop": 4389,
      "Ġscience": 4390,
      "by": 4391,
      "mises": 4392,
      "Ġallez": 4393,
      "dessous": 4394,
      "Ġchimiques": 4395,
      "Ġnuages": 4396,
      "Ġplateforme": 4397,
      "Ġ((": 4398,
      "avenir": 4399,
      "ross": 4400,
      "ĠbrÃ»": 4401,
      "orn": 4402,
      "Ġtent": 4403,
      "accord": 4404,
      "html": 4405,
      "ĠprÃ©sident": 4406,
      "ĠcÅĵur": 4407,
      "Ġtitres": 4408,
      "Ġprendra": 4409,
      "Ġretra": 4410,
      "Ġrecette": 4411,
      "Ġht": 4412,
      "urope": 4413,
      "Ġqual": 4414,
      "ĠauprÃ¨s": 4415,
      "Ġconsommateurs": 4416,
      "ĠÃīv": 4417,
      "test": 4418,
      "ĠSystem": 4419,
      "ĠFin": 4420,
      "Ġmeilleurs": 4421,
      "Ġrecommandations": 4422,
      "io": 4423,
      "ĠvÃ©r": 4424,
      "ĠdegrÃ©s": 4425,
      "Ġrespect": 4426,
      "chant": 4427,
      "Ġlibre": 4428,
      "Ġchats": 4429,
      "Ġrenforcer": 4430,
      "Ġessayez": 4431,
      "Ġfaciliter": 4432,
      "ĠinconvÃ©nients": 4433,
      "Am": 4434,
      "ĠMo": 4435,
      "ĠCan": 4436,
      "Ġcryp": 4437,
      "ettes": 4438,
      "ondes": 4439,
      "Ãītat": 4440,
      "ycl": 4441,
      "ĠÃ©gale": 4442,
      "obtenir": 4443,
      "omb": 4444,
      "IN": 4445,
      "anges": 4446,
      "Ġpoursu": 4447,
      "ĠmÃ©tÃ©orologiques": 4448,
      "Ã©ration": 4449,
      "ELE": 4450,
      "_{\\": 4451,
      "}.": 4452,
      "Ġregarder": 4453,
      "ĠÃ©lectriques": 4454,
      "roy": 4455,
      "Ġutiles": 4456,
      "ĠOb": 4457,
      "Ġveu": 4458,
      "line": 4459,
      "ĠprÃ©sence": 4460,
      "ĠcomposÃ©": 4461,
      "Ġnuageux": 4462,
      "book": 4463,
      "Ġbloc": 4464,
      "Ġsimples": 4465,
      "uie": 4466,
      "otion": 4467,
      "Ġcelles": 4468,
      "da": 4469,
      "Ġfisc": 4470,
      "dro": 4471,
      "Ġrent": 4472,
      "ativitÃ©": 4473,
      "Ġbu": 4474,
      "Ġ:=": 4475,
      "Ġsynony": 4476,
      "ĠCrÃ©er": 4477,
      "Ġconnue": 4478,
      "Ġplastique": 4479,
      "ĠÃ©qui": 4480,
      "impression": 4481,
      "ĠcatÃ©gorie": 4482,
      "ĠrÃ©un": 4483,
      "Ġoptimiser": 4484,
      "Ġvivre": 4485,
      "uant": 4486,
      "optimis": 4487,
      "Ġattention": 4488,
      "Ġaurait": 4489,
      "length": 4490,
      "Ġcontribuer": 4491,
      "Ġname": 4492,
      "Ġsecondes": 4493,
      "ĠaccÃ©der": 4494,
      "Ġenvis": 4495,
      "Ġcra": 4496,
      "Ġmari": 4497,
      "ĠDÃ©fin": 4498,
      "Ġdiagnos": 4499,
      "Ġgratu": 4500,
      "Ph": 4501,
      "poque": 4502,
      "Ġsujets": 4503,
      "Ġfeuilles": 4504,
      "Ġsty": 4505,
      "ĠsÃ©lectionner": 4506,
      "Ġboire": 4507,
      "Ġpreuves": 4508,
      "Ġaffiche": 4509,
      "uellement": 4510,
      "ĠsupÃ©rieure": 4511,
      "tine": 4512,
      "Ġsurtout": 4513,
      "$.": 4514,
      "uelle": 4515,
      "Ġhomme": 4516,
      "emploi": 4517,
      "ĠDonn": 4518,
      "Ġpuiss": 4519,
      "':": 4520,
      "_{": 4521,
      "atures": 4522,
      "ĠdÃ©couvrir": 4523,
      "run": 4524,
      "add": 4525,
      "Ã©ma": 4526,
      "ĠprÃ©occup": 4527,
      "Ġmains": 4528,
      "Ġcitoy": 4529,
      "Ġveuillez": 4530,
      "vres": 4531,
      "Ġtran": 4532,
      "Ġcompagnie": 4533,
      "ELECT": 4534,
      "23": 4535,
      "Ġpages": 4536,
      "Ġfondament": 4537,
      "riv": 4538,
      "Ġchacune": 4539,
      "Ġconvertir": 4540,
      "aissez": 4541,
      "Ġtransactions": 4542,
      "ĠparticuliÃ¨rement": 4543,
      "ĠAff": 4544,
      "Ġpeur": 4545,
      "ocra": 4546,
      "ĠsupÃ©rieur": 4547,
      "Ġcruci": 4548,
      "Ġforces": 4549,
      "ĠconsÃ©quence": 4550,
      "ĠvidÃ©os": 4551,
      "itations": 4552,
      "Ġvais": 4553,
      "Ġparents": 4554,
      "Ġsubst": 4555,
      "Ġcollecter": 4556,
      "Ġdiscours": 4557,
      "own": 4558,
      "rou": 4559,
      "Ġendroits": 4560,
      "Ġtransf": 4561,
      "Ġcroy": 4562,
      "Ġsch": 4563,
      "ĠCor": 4564,
      "ayer": 4565,
      "IT": 4566,
      "uels": 4567,
      "ĠImp": 4568,
      "ĠrÃ©aliser": 4569,
      "ĠsiÃ¨cle": 4570,
      "oubliez": 4571,
      "Ġveulent": 4572,
      "[]": 4573,
      "ĠextrÃªme": 4574,
      "Ġcommandes": 4575,
      "ĠidÃ©": 4576,
      "Ġpermis": 4577,
      "Ġmatch": 4578,
      "Ã©cole": 4579,
      "ĠchaÃ®nes": 4580,
      "sign": 4581,
      "sembles": 4582,
      "endre": 4583,
      "ĠspÃ©cialis": 4584,
      "ĠgoÃ»t": 4585,
      "Ġvient": 4586,
      "Ġconversation": 4587,
      "\"]": 4588,
      "ĠfonctionnalitÃ©": 4589,
      "Ġrestaurant": 4590,
      "Ġsocial": 4591,
      "ĠĠĠĠĠĠĠĠĠĠĠĠĠ": 4592,
      "ĠintÃ©grer": 4593,
      "Ġ21": 4594,
      "ĠimmÃ©di": 4595,
      "Ġsemaines": 4596,
      "ĠScala": 4597,
      "ĠtÃ©lÃ©vision": 4598,
      "ĠliÃ©es": 4599,
      "Ġdra": 4600,
      "Ġanglais": 4601,
      "Ġdocuments": 4602,
      "Ġmises": 4603,
      "Ġspec": 4604,
      "Ġnettoy": 4605,
      "ĠprÃ©parer": 4606,
      "Ġrobo": 4607,
      "Ġpand": 4608,
      "ener": 4609,
      "Ġaid": 4610,
      "ust": 4611,
      "Ġflux": 4612,
      "ume": 4613,
      "osyst": 4614,
      "Ġdisposi": 4615,
      "Ġlecture": 4616,
      "ĠChois": 4617,
      "Ġindique": 4618,
      "xi": 4619,
      "alcool": 4620,
      "ĠquantitÃ©s": 4621,
      "']": 4622,
      "Ġoffrent": 4623,
      "ĠrÃ©gime": 4624,
      "Ġcomparaison": 4625,
      "Ġcapables": 4626,
      "Ġconstante": 4627,
      "Ġcontiennent": 4628,
      "itable": 4629,
      "Ġretr": 4630,
      "ĠMÃªme": 4631,
      "ĠPh": 4632,
      "ĠTu": 4633,
      "tream": 4634,
      "ĠlÃ©gÃ¨rement": 4635,
      "Ġryth": 4636,
      "Ġfonctionnera": 4637,
      "Ġvirus": 4638,
      "Ġmeilleures": 4639,
      "bil": 4640,
      "Ġdig": 4641,
      "Ġflex": 4642,
      "ĠlinÃ©": 4643,
      "charg": 4644,
      "ĠNord": 4645,
      "Ġviande": 4646,
      "Ġjeune": 4647,
      "Ġbille": 4648,
      "Ġtableaux": 4649,
      "Ġtravailleurs": 4650,
      "Ġdisponible": 4651,
      "ĠÃ©tique": 4652,
      "div": 4653,
      "Ġmoderne": 4654,
      "Ġ[\"": 4655,
      "Ġbleu": 4656,
      "Ġscript": 4657,
      "Ġstandard": 4658,
      "tition": 4659,
      "Ġbouton": 4660,
      "Ã¨que": 4661,
      "Ġpleine": 4662,
      "ĠprocÃ©": 4663,
      "Ġsport": 4664,
      "illage": 4665,
      "ĠdÃ©mar": 4666,
      "ĠAvant": 4667,
      "Ġcourse": 4668,
      "Ã©an": 4669,
      "Ġdistribution": 4670,
      "Ġencourager": 4671,
      "mt": 4672,
      "ĠNom": 4673,
      "Ġtravaill": 4674,
      "AS": 4675,
      "ressions": 4676,
      "Ġproche": 4677,
      "environ": 4678,
      "Ġincorp": 4679,
      "ĠvÃ©hicules": 4680,
      "Ġdispar": 4681,
      "Ġexplo": 4682,
      "Ġrare": 4683,
      "ĠQuand": 4684,
      "Ġ90": 4685,
      "ĠVÃ©rif": 4686,
      "osÃ©": 4687,
      "arde": 4688,
      "oss": 4689,
      "iseaux": 4690,
      "Ġpreuve": 4691,
      "arez": 4692,
      "illance": 4693,
      "Ġchoc": 4694,
      "objectif": 4695,
      "Ġpromouvoir": 4696,
      "Ġfacteur": 4697,
      "Ã©vÃ©": 4698,
      "omes": 4699,
      "Ġaidera": 4700,
      "ĠassociÃ©s": 4701,
      "tissements": 4702,
      "voie": 4703,
      "lem": 4704,
      "ĠOp": 4705,
      "ows": 4706,
      "Ġriv": 4707,
      "jo": 4708,
      "ographique": 4709,
      "Ã©ros": 4710,
      "Ġenvers": 4711,
      "ĠÃ©vÃ©nement": 4712,
      "Ġsix": 4713,
      "Ġtension": 4714,
      "ustra": 4715,
      "llem": 4716,
      "Ġcourants": 4717,
      "Ġpositive": 4718,
      "Ġtraite": 4719,
      "ana": 4720,
      "Ġjard": 4721,
      "ĠrÃ©si": 4722,
      "ĠpersonnalitÃ©": 4723,
      "Ġbran": 4724,
      "assurance": 4725,
      "ĠbÃ¢ti": 4726,
      "ize": 4727,
      "Ġcependant": 4728,
      "ĠÃ©cout": 4729,
      "ĠFourn": 4730,
      "ĠnumÃ©riques": 4731,
      "ĠcommunautÃ©s": 4732,
      "ĠSud": 4733,
      "ĠÃ©nergie": 4734,
      "Ġliber": 4735,
      "Ġ199": 4736,
      "ĠnÃ©gatif": 4737,
      "Ġpub": 4738,
      "Ġcomportements": 4739,
      "json": 4740,
      "ĠYork": 4741,
      "xt": 4742,
      "Ġvite": 4743,
      "Ġpil": 4744,
      "ĠcaractÃ¨re": 4745,
      "Ġdouce": 4746,
      "Ġusing": 4747,
      "Ġfus": 4748,
      "ĠmÃ©taph": 4749,
      "ĠfranÃ§ais": 4750,
      "Ġdesign": 4751,
      "Ġcancer": 4752,
      "ĠMary": 4753,
      "Ġcomposants": 4754,
      "ĠSupp": 4755,
      "ootball": 4756,
      "ĠconsidÃ©rablement": 4757,
      "Ġobserv": 4758,
      "ĠÃ©vidence": 4759,
      "utation": 4760,
      "ĠprÃªts": 4761,
      "ĠcÃ©rÃ©": 4762,
      "rions": 4763,
      "Ġdevant": 4764,
      "ĠComm": 4765,
      "Ġrenvoie": 4766,
      "iration": 4767,
      "Ġballe": 4768,
      "Ġdiscuter": 4769,
      "ĠÃ©to": 4770,
      "ĠgÃ©nÃ©rale": 4771,
      "adapter": 4772,
      "ĠnÃ©gatifs": 4773,
      "'s": 4774,
      "Ġroute": 4775,
      "Ġposte": 4776,
      "API": 4777,
      "Ġposer": 4778,
      "Ġdisque": 4779,
      "Ġaspects": 4780,
      "Ġapprofondie": 4781,
      "tÃ©n": 4782,
      "Ġtester": 4783,
      "Ġprofondeur": 4784,
      "Ã©lection": 4785,
      "Ġfen": 4786,
      "ĠMal": 4787,
      "Ġstd": 4788,
      "Ġmauvaise": 4789,
      "ĩa": 4790,
      "Â°": 4791,
      "Ġsalaire": 4792,
      "Ġcouvert": 4793,
      "xe": 4794,
      "Ġcouramment": 4795,
      "ĠgÃ©nÃ©tique": 4796,
      "Ġproduisent": 4797,
      "Ġvic": 4798,
      "Ġvin": 4799,
      "ricul": 4800,
      "Ġenseign": 4801,
      "ĠDis": 4802,
      "ada": 4803,
      "Ġja": 4804,
      "100": 4805,
      "Ġvision": 4806,
      "Ã©lo": 4807,
      "Ġcollaboration": 4808,
      "Ġtar": 4809,
      "Ġconsole": 4810,
      "Ġdiviser": 4811,
      "Ġtenant": 4812,
      "Ġprovoquer": 4813,
      "Ġdessus": 4814,
      "ague": 4815,
      "ĠgÃ©nÃ©ration": 4816,
      "Ġjurid": 4817,
      "rons": 4818,
      "include": 4819,
      "Ġaugmente": 4820,
      "ĠmatÃ©riel": 4821,
      "ket": 4822,
      "Ġdipl": 4823,
      "Ġappareil": 4824,
      "Ġnaturelle": 4825,
      "pre": 4826,
      "ĠEssayez": 4827,
      "Ġfig": 4828,
      "Ġplats": 4829,
      "Ġperdre": 4830,
      "Ġcalories": 4831,
      "ĠnÃ©goci": 4832,
      "Ġfonctionnement": 4833,
      "Ġdynamique": 4834,
      "Ġvide": 4835,
      "Ġpeinture": 4836,
      "ound": 4837,
      "Ġconser": 4838,
      "icher": 4839,
      "Ġchercher": 4840,
      "ĠalÃ©atoires": 4841,
      "ionn": 4842,
      "Ġparticules": 4843,
      "ays": 4844,
      "homme": 4845,
      "Ġcarburant": 4846,
      "Ġdevenu": 4847,
      "Ġlimite": 4848,
      "ĠconsidÃ©rÃ©e": 4849,
      "Ġsoutenir": 4850,
      "Lors": 4851,
      "Ġfinalement": 4852,
      "Line": 4853,
      "Oui": 4854,
      "extra": 4855,
      "imm": 4856,
      "Ġaccessi": 4857,
      "Ġbonnes": 4858,
      "ĠcorrÃ©": 4859,
      "atement": 4860,
      "Ġparfa": 4861,
      "Ġensembles": 4862,
      "Ġsyl": 4863,
      "Ġescal": 4864,
      "Ġpertinents": 4865,
      "Ġ_": 4866,
      "minist": 4867,
      "ĠprÃ©f": 4868,
      "frique": 4869,
      "ĠnÅĵu": 4870,
      "Ġlien": 4871,
      "Ġterrain": 4872,
      "Ġseconde": 4873,
      "Ġculturelles": 4874,
      "Ġorganisations": 4875,
      "40": 4876,
      "emplacement": 4877,
      "Ce": 4878,
      "Ġpanne": 4879,
      "Ġlu": 4880,
      "chent": 4881,
      "ĠrÃ©comp": 4882,
      "avion": 4883,
      "rase": 4884,
      "esses": 4885,
      "iversitÃ©": 4886,
      "Ġsatisfaction": 4887,
      "ĠimpÃ´ts": 4888,
      "ĠMarie": 4889,
      "Ġaurez": 4890,
      "Ġamb": 4891,
      "Ġsortir": 4892,
      "sible": 4893,
      "rup": 4894,
      "Ġlargement": 4895,
      "Ġvont": 4896,
      "Ġobsta": 4897,
      "ographiques": 4898,
      "Ġmatin": 4899,
      "Ġing": 4900,
      "Ġword": 4901,
      "Ġcampagne": 4902,
      "Ġvoc": 4903,
      "plication": 4904,
      "augmentation": 4905,
      "ĠreÃ§u": 4906,
      "Ġrecycl": 4907,
      "Ġmuscles": 4908,
      "ĠrÃ©gression": 4909,
      "Ã´me": 4910,
      "andonn": 4911,
      "ĠindÃ©pend": 4912,
      "Ġtellement": 4913,
      "Ġceci": 4914,
      "cules": 4915,
      "entir": 4916,
      "umin": 4917,
      "ĠDÃ©cris": 4918,
      "key": 4919,
      "Ġexcl": 4920,
      "ĠPrenez": 4921,
      "ROM": 4922,
      "Ġqualif": 4923,
      "appare": 4924,
      "Ġclasser": 4925,
      "Ġaccompl": 4926,
      "ĠcatÃ©gories": 4927,
      "Ġcre": 4928,
      "ĠcarriÃ¨re": 4929,
      "Ġdents": 4930,
      "Ġillus": 4931,
      "irer": 4932,
      "Ġparagraphe": 4933,
      "Ġchron": 4934,
      "Ġconnec": 4935,
      "ĠÃ©lectronique": 4936,
      "sembl": 4937,
      "ĠinterprÃ©": 4938,
      "index": 4939,
      "eusement": 4940,
      "Ġcommerce": 4941,
      "Ġcuisson": 4942,
      "ĠprÃ©venir": 4943,
      "ĠAc": 4944,
      "gr": 4945,
      "Ġmenu": 4946,
      "Ġessentiellement": 4947,
      "iver": 4948,
      "Ġcogn": 4949,
      "Ġplein": 4950,
      "Ã©lÃ©ment": 4951,
      "Ġtap": 4952,
      "Ġimpacts": 4953,
      "Ġmarche": 4954,
      "Ġtraits": 4955,
      "iew": 4956,
      "ĠopportunitÃ©s": 4957,
      "Ġmachines": 4958,
      "mbre": 4959,
      "Nom": 4960,
      "Ġoffrant": 4961,
      "ĠdÃ©part": 4962,
      "Ġactuellement": 4963,
      "Ġmembre": 4964,
      "alse": 4965,
      "ĠconÃ§u": 4966,
      "ĠprivÃ©e": 4967,
      "->": 4968,
      "orre": 4969,
      "Ġsep": 4970,
      "ĠÃ©quation": 4971,
      "ĠrÃ©ser": 4972,
      "Ġverre": 4973,
      "agez": 4974,
      "oxygÃ¨ne": 4975,
      "ĠTrouvez": 4976,
      "tionnelle": 4977,
      "Ġfaibles": 4978,
      "Ġserre": 4979,
      "culaire": 4980,
      "Dans": 4981,
      "Ġdirect": 4982,
      "Ġperspec": 4983,
      "ĠGP": 4984,
      "Ġquar": 4985,
      "ĠRoy": 4986,
      "Ġaccord": 4987,
      "omÃ©": 4988,
      "asser": 4989,
      "II": 4990,
      "Ġintroduction": 4991,
      "Ġball": 4992,
      "ĠFROM": 4993,
      "Ġindices": 4994,
      "sembler": 4995,
      "Ġsolide": 4996,
      "Ġpublique": 4997,
      "RE": 4998,
      "Ġfeuille": 4999,
      "employ": 5000,
      "Ġclassi": 5001,
      "Ġquels": 5002,
      "Ġenn": 5003,
      "ĠempÃªcher": 5004,
      "Ġseraient": 5005,
      "Ġpatient": 5006,
      "Ġglace": 5007,
      "ritann": 5008,
      "ĠsociÃ©tÃ©s": 5009,
      "The": 5010,
      "ares": 5011,
      "ĠImaginez": 5012,
      "Ġmatrice": 5013,
      "Ġdiversif": 5014,
      "quÃ©e": 5015,
      "Ġbe": 5016,
      "Ġdomm": 5017,
      "Ġopin": 5018,
      "ĠÃīcris": 5019,
      "monter": 5020,
      "Ġconnaissance": 5021,
      "acheter": 5022,
      "Ġdens": 5023,
      "Ġmettant": 5024,
      "Ġadul": 5025,
      "Ġphil": 5026,
      "ĠrÃ©flex": 5027,
      "Ġconcernant": 5028,
      "toires": 5029,
      "Ġinvestisseurs": 5030,
      "ĠprÃ©sentation": 5031,
      "attention": 5032,
      "Ġliens": 5033,
      "ĠÃ©quipes": 5034,
      "body": 5035,
      "Ġconcepts": 5036,
      "Ġparmi": 5037,
      "Ġtirer": 5038,
      "Ġexpression": 5039,
      "Ã§ons": 5040,
      "Ġnutriments": 5041,
      "acez": 5042,
      "Ġ1000": 5043,
      "Ġrappeler": 5044,
      "ast": 5045,
      "ĠnÃ©cessitent": 5046,
      "ĠAjouter": 5047,
      "amm": 5048,
      "Ġvert": 5049,
      "Ġvitam": 5050,
      "ĠÃ©quilib": 5051,
      "ĠSelon": 5052,
      "AD": 5053,
      "comp": 5054,
      "ĠthÃ¨me": 5055,
      "Ġconduira": 5056,
      "Ġconnecter": 5057,
      "ĠcontrÃ´ler": 5058,
      "Ġecho": 5059,
      "Ġbatterie": 5060,
      "Ġtranspar": 5061,
      "Ġamus": 5062,
      "ĠNotez": 5063,
      "ĠachetÃ©": 5064,
      "Ġsaison": 5065,
      "____": 5066,
      "ĠmÃ©tal": 5067,
      "ĠagrÃ©": 5068,
      "ctives": 5069,
      "ĠdÃ©fini": 5070,
      "Ġtrouvent": 5071,
      "escal": 5072,
      "Ġanalys": 5073,
      "Ġpensez": 5074,
      "mise": 5075,
      "Ġprises": 5076,
      "Ġallons": 5077,
      "Ġ---": 5078,
      "Ġpoule": 5079,
      "Ã©rance": 5080,
      "Ġconfront": 5081,
      "atoire": 5082,
      "ĠrÃ©chauff": 5083,
      "Ġprofessionnelle": 5084,
      "ĠÅĵufs": 5085,
      "airs": 5086,
      "llemagne": 5087,
      "ĠrÃ©action": 5088,
      "fl": 5089,
      "orth": 5090,
      "ĠtempÃ©ratures": 5091,
      "trez": 5092,
      "');": 5093,
      "igh": 5094,
      "Ġajoutant": 5095,
      "Ġhar": 5096,
      "Ġcontenir": 5097,
      "Ġportable": 5098,
      "Ġpuissent": 5099,
      "ĠÃ©nigme": 5100,
      "Ã¢teau": 5101,
      "osoph": 5102,
      "ocÃ©an": 5103,
      "diction": 5104,
      "Ġretourn": 5105,
      "Ġroman": 5106,
      "alyser": 5107,
      "Ġmainten": 5108,
      "Ġcombus": 5109,
      "ĠillÃ©g": 5110,
      "Ġfinancier": 5111,
      "itter": 5112,
      "ĠÃ©t": 5113,
      "ĠprÃ©ci": 5114,
      "Ġcuisiner": 5115,
      "ĠOr": 5116,
      "Ġconfidenti": 5117,
      "lever": 5118,
      "Ġfille": 5119,
      "ĠcrÃ©ant": 5120,
      "Ġenvironnementaux": 5121,
      "OS": 5122,
      "activ": 5123,
      "Ġ22": 5124,
      "App": 5125,
      "Ġlune": 5126,
      "Ġefforts": 5127,
      "python": 5128,
      "rop": 5129,
      "dd": 5130,
      "ĠQui": 5131,
      "Ġbases": 5132,
      "ĠrÃ©guliÃ¨re": 5133,
      "ĠgÃ©nÃ¨re": 5134,
      "Ġminimum": 5135,
      "Ġminimiser": 5136,
      "Ġ45": 5137,
      "Ġ32": 5138,
      "ĠÃ©lab": 5139,
      "Ġradio": 5140,
      "Ġincroy": 5141,
      "Ġplanification": 5142,
      "inois": 5143,
      "ute": 5144,
      "Ġmodern": 5145,
      "ĠpossÃ¨de": 5146,
      "Ġfootball": 5147,
      "Ġprenez": 5148,
      "rass": 5149,
      "amour": 5150,
      "Ġvoyez": 5151,
      "urgence": 5152,
      "Ġul": 5153,
      "Ġparle": 5154,
      "stes": 5155,
      "ĠthÃ¨mes": 5156,
      "oft": 5157,
      "ĠpÃ©t": 5158,
      "Ġhau": 5159,
      "code": 5160,
      "ister": 5161,
      "Ġbruit": 5162,
      "gÃ©": 5163,
      "Ġsum": 5164,
      "Ġappliqu": 5165,
      "Ġlocaux": 5166,
      "tence": 5167,
      "Ġuniversel": 5168,
      "Ġpied": 5169,
      "Ġutilisons": 5170,
      "ĠLorsqu": 5171,
      "sc": 5172,
      "Ã©tiques": 5173,
      "Ġpack": 5174,
      "Ġtriangle": 5175,
      "Ġextrait": 5176,
      "Ġboute": 5177,
      "Ġperdu": 5178,
      "ĠcarrÃ©": 5179,
      "onnements": 5180,
      "ive": 5181,
      "Ġling": 5182,
      "Ġautonom": 5183,
      "Ġmiles": 5184,
      "onjour": 5185,
      "Ġmoteurs": 5186,
      "Ġeuro": 5187,
      "Ġdois": 5188,
      "Ġcham": 5189,
      "Ġsangu": 5190,
      "alisme": 5191,
      "https": 5192,
      "ave": 5193,
      "Ġdivis": 5194,
      "xiÃ©tÃ©": 5195,
      "ĠAPI": 5196,
      "Ġrecevoir": 5197,
      "++)": 5198,
      "tice": 5199,
      "Ġrandom": 5200,
      "ĠÃ©vol": 5201,
      "Ġcollecte": 5202,
      "csv": 5203,
      "onnaie": 5204,
      "ĠÃītape": 5205,
      "Ġkm": 5206,
      "Ġentendu": 5207,
      "ey": 5208,
      "ismes": 5209,
      "Ġclairement": 5210,
      "land": 5211,
      "Ġras": 5212,
      "Ġplante": 5213,
      "Ġjeunes": 5214,
      "ĠscÃ¨ne": 5215,
      "gement": 5216,
      "ĠdÃ©veloppÃ©": 5217,
      "Ġcercle": 5218,
      "ĠlibertÃ©": 5219,
      "ree": 5220,
      "ĠcoÃ»te": 5221,
      "ĠconsidÃ©rÃ©s": 5222,
      "comm": 5223,
      "new": 5224,
      "Ġlentement": 5225,
      "dient": 5226,
      "Ġprenant": 5227,
      "comme": 5228,
      "aissent": 5229,
      "Ġvisage": 5230,
      "Ã©mie": 5231,
      "pore": 5232,
      "Ġfib": 5233,
      "quez": 5234,
      "ĠbÃ©b": 5235,
      "cides": 5236,
      "ĠbeautÃ©": 5237,
      "del": 5238,
      "Ġgouvernements": 5239,
      "Ġpat": 5240,
      "ample": 5241,
      "Ġquotidienne": 5242,
      "rastru": 5243,
      "fe": 5244,
      "Ã©tude": 5245,
      "Ġtradu": 5246,
      "ĠproductivitÃ©": 5247,
      "Ġformulaire": 5248,
      "type": 5249,
      "ĠinfÃ©rieur": 5250,
      "List": 5251,
      "ĠÃ©toiles": 5252,
      "ĠdifficultÃ©s": 5253,
      "quÃªte": 5254,
      "Ġcellule": 5255,
      "Ġespace": 5256,
      "Ġchoisi": 5257,
      "ĠcohÃ©r": 5258,
      "Ġcourte": 5259,
      "Ġpositifs": 5260,
      ".)": 5261,
      "arbre": 5262,
      "onse": 5263,
      "read": 5264,
      "Ġmys": 5265,
      "Ġlour": 5266,
      "ification": 5267,
      "Ġparcourir": 5268,
      "head": 5269,
      "Ġ23": 5270,
      "Ġabsor": 5271,
      "dia": 5272,
      "tiquer": 5273,
      "Ġbouche": 5274,
      "45": 5275,
      "ĠpremiÃ¨res": 5276,
      "roduit": 5277,
      "ĠbactÃ©ries": 5278,
      "IS": 5279,
      "Ġpotentiellement": 5280,
      "Ġquant": 5281,
      "Ġbiens": 5282,
      "asses": 5283,
      "Ġmaximale": 5284,
      "ĠÃ¢ge": 5285,
      "effet": 5286,
      "Ġpal": 5287,
      "ĠdÃ©veloppeurs": 5288,
      "Ġcycle": 5289,
      "ĠdÃ©mont": 5290,
      "Ġair": 5291,
      "server": 5292,
      "Ġchef": 5293,
      "Ġactive": 5294,
      "ĠcÃ©lÃ¨bre": 5295,
      "osons": 5296,
      "Ġconten": 5297,
      "Ġsexe": 5298,
      "Ġenvoy": 5299,
      "ĠespÃ¨ce": 5300,
      "ĠLatex": 5301,
      "Ġdix": 5302,
      "ramme": 5303,
      "Ġbanc": 5304,
      "extÃ©rieur": 5305,
      "ĠdÃ©mocra": 5306,
      "Ġpert": 5307,
      "usement": 5308,
      "ask": 5309,
      "Ġget": 5310,
      "Ġstructures": 5311,
      "oo": 5312,
      "ĠsuggÃ©rer": 5313,
      "Ġsud": 5314,
      "ĠCalcul": 5315,
      "ĠÃ©trang": 5316,
      "words": 5317,
      "Ġbras": 5318,
      "olat": 5319,
      "Ġconfigu": 5320,
      "erie": 5321,
      "aprÃ¨s": 5322,
      "Ġral": 5323,
      "Ġsouvenir": 5324,
      "LP": 5325,
      "Ġproven": 5326,
      "Ġplac": 5327,
      "titution": 5328,
      "ĠextrÃªmement": 5329,
      "Ġennuy": 5330,
      "Ġcirculation": 5331,
      "her": 5332,
      "jeun": 5333,
      "Ġbanques": 5334,
      "Ġprov": 5335,
      "ples": 5336,
      "Ġfatig": 5337,
      "ĠSa": 5338,
      "Element": 5339,
      "Ġretard": 5340,
      "rome": 5341,
      "nÃ©e": 5342,
      "rable": 5343,
      "Ġsoupe": 5344,
      "Ġlocales": 5345,
      "Ġcorrespondant": 5346,
      "amÃ©liorer": 5347,
      "temp": 5348,
      "ĠcamÃ©ra": 5349,
      "Ġmorceaux": 5350,
      "ĠAt": 5351,
      "ĠÃīcri": 5352,
      "Ġsurveiller": 5353,
      "Vous": 5354,
      "append": 5355,
      "Ġconservation": 5356,
      "ial": 5357,
      "Ġcorrig": 5358,
      "atmosphÃ¨re": 5359,
      "ium": 5360,
      "Ġsynta": 5361,
      "uste": 5362,
      "Ġhabitudes": 5363,
      "ĠChoisissez": 5364,
      "Ġlecteur": 5365,
      "old": 5366,
      "Ġaffec": 5367,
      "ercices": 5368,
      "qui": 5369,
      "ĠfÃ©d": 5370,
      "ĠrÃ©cu": 5371,
      "Ġoiseaux": 5372,
      "ĠdÃ©clen": 5373,
      "Ġmission": 5374,
      "yau": 5375,
      "Ġaur": 5376,
      "Ġphilosoph": 5377,
      "long": 5378,
      "ĠlinÃ©aire": 5379,
      "Ġbons": 5380,
      "Ġsymbole": 5381,
      "Ġconcurren": 5382,
      "Ġjardin": 5383,
      "Ġproposer": 5384,
      "Ġai": 5385,
      "Ġfournies": 5386,
      "Ġmilliards": 5387,
      "ĠcuillÃ¨re": 5388,
      "lign": 5389,
      "Ġrythme": 5390,
      "siÃ¨re": 5391,
      "ĠDÃ©velopp": 5392,
      "------": 5393,
      "Ġchances": 5394,
      "Ġcoun": 5395,
      "Ġnord": 5396,
      "ĠconnaÃ®tre": 5397,
      "ĠliÃ©": 5398,
      "Name": 5399,
      "icale": 5400,
      "Ã©crire": 5401,
      "ĠCSS": 5402,
      "\\_": 5403,
      "Ġpensent": 5404,
      "ĠprÃ©cises": 5405,
      "hors": 5406,
      "Ġfunction": 5407,
      "Ġsil": 5408,
      "Ġmotifs": 5409,
      "forall": 5410,
      "LI": 5411,
      "mart": 5412,
      "Ġdescrip": 5413,
      "Ġrange": 5414,
      "Ġgre": 5415,
      "Ġgrav": 5416,
      "ĠprÃ©cÃ©d": 5417,
      "ood": 5418,
      "Ġcomptes": 5419,
      "iteurs": 5420,
      "Ġrouges": 5421,
      "Bien": 5422,
      "uscules": 5423,
      "ĠzÃ©ro": 5424,
      "ĠpublicitÃ©": 5425,
      "Â»": 5426,
      "ĠreprÃ©sentation": 5427,
      "Ġlangages": 5428,
      "Ġsensibles": 5429,
      "input": 5430,
      "Ġcourantes": 5431,
      "aliste": 5432,
      "Ġoffici": 5433,
      "ĠmÃ¨re": 5434,
      "Ġcorrecte": 5435,
      "Ġrefroid": 5436,
      "tait": 5437,
      "Ġportef": 5438,
      "rue": 5439,
      "esse": 5440,
      "Ġchauss": 5441,
      "Ġorganisation": 5442,
      "HER": 5443,
      "itre": 5444,
      "cie": 5445,
      "dom": 5446,
      "Ġcalculs": 5447,
      "ĠappropriÃ©es": 5448,
      "ĠRoyaume": 5449,
      "osant": 5450,
      "Ġnaturelles": 5451,
      "orÃ©": 5452,
      "Ġajoutez": 5453,
      "Ġparfait": 5454,
      "ĠparticuliÃ¨re": 5455,
      "ĠscÃ©nario": 5456,
      "ĠphÃ©n": 5457,
      "Ġcalcule": 5458,
      "Ġobstacles": 5459,
      "Ġcauses": 5460,
      "Ġnettoyer": 5461,
      "informatique": 5462,
      "ĠdÃ©cri": 5463,
      "ĠarriÃ¨re": 5464,
      "Ġprim": 5465,
      "indows": 5466,
      "Ġdommages": 5467,
      "Ġdette": 5468,
      "identifier": 5469,
      "Ġsons": 5470,
      "Ġmens": 5471,
      "label": 5472,
      "ĠjouÃ©": 5473,
      "Ġcombat": 5474,
      "Ġconscience": 5475,
      "Ġinvestissements": 5476,
      "pers": 5477,
      "ĠInt": 5478,
      "ĠcrÃ¨me": 5479,
      "Ġajuster": 5480,
      "ĠÃ©clai": 5481,
      "mal": 5482,
      "assif": 5483,
      "Ġatteint": 5484,
      "Ġdehors": 5485,
      "inten": 5486,
      "Ã©rant": 5487,
      "engagement": 5488,
      "Ġaccomplir": 5489,
      "Ġsupprimer": 5490,
      "Uni": 5491,
      "ĠfÃ©dÃ©ra": 5492,
      "AN": 5493,
      "Ġvacc": 5494,
      "Ġvirtuelle": 5495,
      "Ġtouche": 5496,
      "ennuie": 5497,
      "Int": 5498,
      "ignement": 5499,
      "Ġhumaines": 5500,
      "Ġarti": 5501,
      "uyez": 5502,
      "ĠcÃ¢": 5503,
      "ql": 5504,
      "Ġcorpore": 5505,
      "Ġinstall": 5506,
      "Ġfromage": 5507,
      "Ġressent": 5508,
      "atta": 5509,
      "Ġwith": 5510,
      "ĠaccÃ©": 5511,
      "Ġrig": 5512,
      "Ġsaine": 5513,
      "Ġvas": 5514,
      "Ġmoments": 5515,
      "Ġ27": 5516,
      "ĠapprÃ©ci": 5517,
      "Ġactifs": 5518,
      "ĠrÃ©duit": 5519,
      "Ġcase": 5520,
      "ĠdemandÃ©": 5521,
      "uts": 5522,
      "ouvre": 5523,
      "usse": 5524,
      "Ġdesc": 5525,
      "ĠPo": 5526,
      "Ġrespecter": 5527,
      "ĠrÃ©alisÃ©": 5528,
      "ĠdurabilitÃ©": 5529,
      "ĠCSV": 5530,
      "Ġtomb": 5531,
      "www": 5532,
      "ĠDonnez": 5533,
      "ource": 5534,
      "Ġinclut": 5535,
      "jeuner": 5536,
      "ĠBl": 5537,
      "illir": 5538,
      "Ġorganiser": 5539,
      "Ġsignificatif": 5540,
      "outil": 5541,
      "Ġ36": 5542,
      "Ġpeine": 5543,
      "mat": 5544,
      "work": 5545,
      "ĠÃ©duc": 5546,
      "appar": 5547,
      "Ġboi": 5548,
      "Ġvul": 5549,
      "ĠrÃ©pert": 5550,
      "Ġporter": 5551,
      "Ġcitoyens": 5552,
      "ld": 5553,
      "ype": 5554,
      "Ġorient": 5555,
      "bers": 5556,
      "Ġarriver": 5557,
      "erreur": 5558,
      "ĠĠĠĠĠĠĠĠĠĠĠĠĠĠĠĠĠĠĠĠĠĠĠĠĠĠĠĠĠĠĠĠ": 5559,
      "Ġautomatiquement": 5560,
      "ĠMic": 5561,
      "illez": 5562,
      "Ġassurez": 5563,
      "Ġalimentation": 5564,
      "iche": 5565,
      "ĠimmÃ©diatement": 5566,
      "Ġgrimpe": 5567,
      "Ġinformatiques": 5568,
      "Ġculturelle": 5569,
      "Ġlaissez": 5570,
      "ĠcrÃ©ativitÃ©": 5571,
      "Ġpassage": 5572,
      "Ġ28": 5573,
      "Ġenvoyer": 5574,
      "Ġconvain": 5575,
      "ĠSon": 5576,
      "Ġaffe": 5577,
      "Ġchaude": 5578,
      "ĠdiversitÃ©": 5579,
      "ĠÃīvitez": 5580,
      "Ġapporter": 5581,
      "ĠcarrÃ©s": 5582,
      "ĠeuropÃ©": 5583,
      "ĠtraitÃ©": 5584,
      "ĠmaniÃ¨res": 5585,
      "Ġerreur": 5586,
      "Ġ35": 5587,
      "Ġadjectifs": 5588,
      "exam": 5589,
      "ĠAng": 5590,
      "Ġmobile": 5591,
      "Ġpoly": 5592,
      "Ġeau": 5593,
      "Ġpoissons": 5594,
      "ĠĠĠĠĠĠĠĠĠĠĠĠĠĠĠĠĠĠĠĠ": 5595,
      "ĠÃītant": 5596,
      "ower": 5597,
      "ĠdÃ©finition": 5598,
      "[\"": 5599,
      "Ġtherm": 5600,
      "Ġchimique": 5601,
      "24": 5602,
      "Ġsait": 5603,
      "Ġtissu": 5604,
      "lin": 5605,
      "zon": 5606,
      "ancÃ©": 5607,
      "ET": 5608,
      "Ġpla": 5609,
      "Ġrevanche": 5610,
      "HERE": 5611,
      "Ġchant": 5612,
      "ory": 5613,
      "Ġaudio": 5614,
      "orge": 5615,
      "Ġponens": 5616,
      "Ġbinaire": 5617,
      "size": 5618,
      "Ob": 5619,
      "ms": 5620,
      "Ġremplir": 5621,
      "Ġ70": 5622,
      "Ġ\\\\": 5623,
      "Ã©valuation": 5624,
      "uelles": 5625,
      "astro": 5626,
      "images": 5627,
      "ĠrÃ©glementations": 5628,
      "Ġappelle": 5629,
      "Ġfavor": 5630,
      "ĠÃ©liminer": 5631,
      "ussion": 5632,
      "esti": 5633,
      "Ġnavigation": 5634,
      "ĠrÃ©ussir": 5635,
      "Ġvaut": 5636,
      "ĠConsole": 5637,
      "plot": 5638,
      "essence": 5639,
      "Ġretraite": 5640,
      "rication": 5641,
      "Ġindustries": 5642,
      "car": 5643,
      "To": 5644,
      "eurre": 5645,
      "Ġsurmonter": 5646,
      "aw": 5647,
      "Ġradi": 5648,
      "Ġexpressions": 5649,
      "Ġ{\"": 5650,
      "Ġparticipants": 5651,
      "lt": 5652,
      "ince": 5653,
      "appareil": 5654,
      "Ġhas": 5655,
      "elable": 5656,
      "indice": 5657,
      "Ġinteractions": 5658,
      "raison": 5659,
      "Ġemploi": 5660,
      "aliment": 5661,
      "expliquer": 5662,
      "Ġvisualisation": 5663,
      "uster": 5664,
      "adresse": 5665,
      "ĠpropriÃ©taire": 5666,
      "Ġfas": 5667,
      "chain": 5668,
      "Ġfleurs": 5669,
      "ĠentrÃ©es": 5670,
      "Ġfroide": 5671,
      "Ġmodernes": 5672,
      "ĠfÃªte": 5673,
      "Ġbritann": 5674,
      "Ġindividuels": 5675,
      "ĠphÃ©nom": 5676,
      "Ġentrer": 5677,
      "ĠconfidentialitÃ©": 5678,
      "Ġnaturels": 5679,
      "roit": 5680,
      "ĠunitÃ©s": 5681,
      "ĠToute": 5682,
      "Ġpouces": 5683,
      "Ġpain": 5684,
      "anxiÃ©tÃ©": 5685,
      "obil": 5686,
      "ĠtÃ©lÃ©vis": 5687,
      "ĠbasÃ©es": 5688,
      "Ġfinale": 5689,
      "iÃ©es": 5690,
      "lui": 5691,
      "rales": 5692,
      "Ġacqu": 5693,
      "ĠdÃ©tail": 5694,
      "Ġinclus": 5695,
      "Ġrembours": 5696,
      "Ġsuppose": 5697,
      "Ġclasses": 5698,
      "Ġmeur": 5699,
      "liquÃ©": 5700,
      "Ġentiers": 5701,
      "Ġquantique": 5702,
      "75": 5703,
      "Ġfils": 5704,
      "idation": 5705,
      "Ġhist": 5706,
      "ĠpensÃ©e": 5707,
      "Ġpersonnaliser": 5708,
      "ĠexÃ©cuter": 5709,
      "ĠÃ©m": 5710,
      "Ġglac": 5711,
      "ĠMark": 5712,
      "ĠreflÃ¨": 5713,
      "agÃ©": 5714,
      "Ġenregistre": 5715,
      "Ġsurveillance": 5716,
      "Ġexcellent": 5717,
      "Ġvap": 5718,
      "isÃ©es": 5719,
      "Ġamp": 5720,
      "Ġ[]": 5721,
      "Ġrelativement": 5722,
      "Ġnul": 5723,
      "ĠdÃ¨s": 5724,
      "Ġtransaction": 5725,
      "autom": 5726,
      "Con": 5727,
      "istique": 5728,
      "Ġsaveur": 5729,
      "ĠocÃ©": 5730,
      "Col": 5731,
      "OU": 5732,
      "Â²": 5733,
      "Ġplateformes": 5734,
      "Ġprincipes": 5735,
      "nÃ©ra": 5736,
      "Ġtransmettre": 5737,
      "Ġdictionnaire": 5738,
      "Write": 5739,
      "ifs": 5740,
      "ĠstockÃ©es": 5741,
      "Ġcong": 5742,
      "Ġvoie": 5743,
      "ĠmodÃ©l": 5744,
      "Ġsavez": 5745,
      "Ġplais": 5746,
      "Ġprogres": 5747,
      "Ġdivision": 5748,
      "Ġfaits": 5749,
      "begin": 5750,
      "ĠBonne": 5751,
      "Ġvendu": 5752,
      "ĠJapon": 5753,
      "Ġsoustra": 5754,
      "ĠPrem": 5755,
      "urants": 5756,
      "Ġhors": 5757,
      "angent": 5758,
      "Ġ300": 5759,
      "Ġmodifications": 5760,
      "port": 5761,
      "Ġlen": 5762,
      "ĠHar": 5763,
      "ĠpensÃ©es": 5764,
      "rosoft": 5765,
      "==": 5766,
      "chÃ©e": 5767,
      "Ġrect": 5768,
      "Ġcouches": 5769,
      "Ġfournisseur": 5770,
      "Ġportefeuille": 5771,
      "><": 5772,
      "Ġvac": 5773,
      "gra": 5774,
      "loc": 5775,
      "ocument": 5776,
      "Ġlinguis": 5777,
      "Ġprovenant": 5778,
      "Ġconflits": 5779,
      "Ã©poque": 5780,
      "Ġbande": 5781,
      "tagn": 5782,
      "mÃªmes": 5783,
      "optimisation": 5784,
      "ĠCanada": 5785,
      "Ġrenouvelable": 5786,
      "ĠSELECT": 5787,
      "atic": 5788,
      "ĠmÃ©dicaux": 5789,
      "tiver": 5790,
      "ĠrequÃªtes": 5791,
      "Ġsusceptibles": 5792,
      "ouer": 5793,
      "Ġfur": 5794,
      "Ġdoig": 5795,
      "Ġlun": 5796,
      "Ġouvert": 5797,
      "Val": 5798,
      "Ġalph": 5799,
      "Ġprotoc": 5800,
      "ĠcÃ©lÃ©": 5801,
      "ĠWHERE": 5802,
      "itecture": 5803,
      "AmÃ©rique": 5804,
      "ĠPendant": 5805,
      "Ġsembler": 5806,
      "instru": 5807,
      "Ã«": 5808,
      "Ġlancer": 5809,
      "Ġlab": 5810,
      "pect": 5811,
      "Ġcritiques": 5812,
      "Ġdiag": 5813,
      "Ġfabrication": 5814,
      "Ġfar": 5815,
      "Ġbaisse": 5816,
      "Ġlumin": 5817,
      "reinte": 5818,
      "Ġsuffit": 5819,
      "AM": 5820,
      "Ġfins": 5821,
      "Ġconversion": 5822,
      "Ġinvestissement": 5823,
      "affaires": 5824,
      "Ġcrise": 5825,
      "ĠrÃ©sistance": 5826,
      "Ġrapides": 5827,
      "ĠdÃ©place": 5828,
      "ild": 5829,
      "Ġcop": 5830,
      "ĠrÃ©ve": 5831,
      "Ġsoin": 5832,
      "plit": 5833,
      "Ġsensation": 5834,
      "Ġfre": 5835,
      "Ġgross": 5836,
      "ĠTrouve": 5837,
      "ĠÃ©lectroniques": 5838,
      "ĠmatiÃ¨res": 5839,
      "Ġnoix": 5840,
      "Ġcapital": 5841,
      "phone": 5842,
      "Ġrenv": 5843,
      "Ġdirig": 5844,
      "iel": 5845,
      "section": 5846,
      "dule": 5847,
      "Ġsecteur": 5848,
      "Ġdevoir": 5849,
      "Ġsurvivre": 5850,
      "Ġarray": 5851,
      "Ġenvironnemental": 5852,
      "dique": 5853,
      "Ġblock": 5854,
      "Ġobtenu": 5855,
      "Ġsoulign": 5856,
      "Ġrem": 5857,
      "onal": 5858,
      "ĠrÃ©cur": 5859,
      "Ġtrue": 5860,
      "Ġtac": 5861,
      "Ġher": 5862,
      "ĠWindows": 5863,
      "ĠmatÃ©riau": 5864,
      "ĠprÃ©occupations": 5865,
      "ĠpÃ©tro": 5866,
      "By": 5867,
      "ste": 5868,
      "Ġplans": 5869,
      "lÃ©ter": 5870,
      "ĠÃ©tro": 5871,
      "ĠdÃ©duite": 5872,
      "ĠÃ©cosyst": 5873,
      "impÃ´t": 5874,
      "Ġax": 5875,
      "Ġdeviennent": 5876,
      "Ġboira": 5877,
      "Ġblo": 5878,
      "ouble": 5879,
      "ĠcorrÃ©lation": 5880,
      "udici": 5881,
      "Ġmou": 5882,
      "ĠdÃ©cro": 5883,
      "ĠdÃ©pendra": 5884,
      "Ġmonnaie": 5885,
      "encez": 5886,
      "ifique": 5887,
      "Ġpluie": 5888,
      "Ġstu": 5889,
      "Ġtechnologiques": 5890,
      "Ġtomber": 5891,
      "org": 5892,
      "ĠPas": 5893,
      "delÃł": 5894,
      "Ġdimen": 5895,
      "issante": 5896,
      "Ġpron": 5897,
      "ĠpersonnalisÃ©": 5898,
      "ĠÃ©tablir": 5899,
      "ĠGuerre": 5900,
      "ĠvulnÃ©ra": 5901,
      "Ġdivid": 5902,
      "Ġtourner": 5903,
      "cemment": 5904,
      "ĠAS": 5905,
      "Ġĉĉĉ": 5906,
      "back": 5907,
      "ĠnÃ©cessiter": 5908,
      "rets": 5909,
      "Ġchinois": 5910,
      "ĠDem": 5911,
      "ĠdÃ©tection": 5912,
      "Ġhom": 5913,
      "ĠExemple": 5914,
      "Ġ~(": 5915,
      "cÃ©e": 5916,
      "Ġgagne": 5917,
      "Ġatti": 5918,
      "Ġ150": 5919,
      "Ã©rir": 5920,
      "Ġgrimper": 5921,
      "no": 5922,
      "agent": 5923,
      "Ġmaisons": 5924,
      "Åĵil": 5925,
      "animal": 5926,
      "ĠrÃ©flexion": 5927,
      "Ġsigne": 5928,
      "Ġsat": 5929,
      "Ġ--": 5930,
      "sifs": 5931,
      "Ġachats": 5932,
      "ignons": 5933,
      "Ġflot": 5934,
      "Ġprobable": 5935,
      "ĠÃ©chelle": 5936,
      "Ġarmes": 5937,
      "ĠappropriÃ©s": 5938,
      "Ġfournissez": 5939,
      "ĠreprÃ©sentant": 5940,
      "ĠcollectÃ©es": 5941,
      "\").": 5942,
      "opÃ©ra": 5943,
      "Ġauxqu": 5944,
      "Ġrobot": 5945,
      "Ġrecommander": 5946,
      "ĠajoutÃ©": 5947,
      "ĠfenÃªtre": 5948,
      "ear": 5949,
      "ator": 5950,
      "Ġretirer": 5951,
      "Ġsupport": 5952,
      "Ġcrucial": 5953,
      "Ġvaisse": 5954,
      "Ġarch": 5955,
      "Ġplanifier": 5956,
      "Ġtravaillent": 5957,
      ".</": 5958,
      "Ġtrafic": 5959,
      "Ġvisualiser": 5960,
      "UE": 5961,
      "Ġpier": 5962,
      "ĠEdit": 5963,
      "Ġsein": 5964,
      "ĠCet": 5965,
      "Ġinformation": 5966,
      "ĠSÃ©lection": 5967,
      "Ġlivraison": 5968,
      "Ã©cules": 5969,
      "enses": 5970,
      "Ġlimiter": 5971,
      "Ġcombinaisons": 5972,
      "Ġlesquels": 5973,
      "Ġsemblent": 5974,
      "nÃ©es": 5975,
      "arri": 5976,
      "Ġvoid": 5977,
      "organisation": 5978,
      "Ġaident": 5979,
      "ajouter": 5980,
      "Ġfile": 5981,
      "Ġtexture": 5982,
      "Ġattenti": 5983,
      "ĠÃ©conomiser": 5984,
      "Ġdisjonction": 5985,
      "ĠprÃ©cisÃ©": 5986,
      "ĠnommÃ©": 5987,
      "Ġgraves": 5988,
      "Ġstructu": 5989,
      "ical": 5990,
      "Ġargument": 5991,
      "Ġthis": 5992,
      "Ġcolor": 5993,
      "Cl": 5994,
      "Ġdiscri": 5995,
      "ĠCeci": 5996,
      "Ġru": 5997,
      "Ġappliquer": 5998,
      "Ġidenti": 5999,
      "Ġsuggestions": 6000,
      "Ġ&&": 6001,
      "oxyde": 6002,
      "Ġrendement": 6003,
      "rits": 6004,
      "Ġrapports": 6005,
      "01": 6006,
      "ĠÃ©coutera": 6007,
      "Ġsoign": 6008,
      "ĠMicrosoft": 6009,
      "este": 6010,
      "Ã¨ges": 6011,
      "64": 6012,
      "ĠdensitÃ©": 6013,
      "enez": 6014,
      "url": 6015,
      "Ġchaussures": 6016,
      "oe": 6017,
      "ĠtrÃ©s": 6018,
      "Ġuns": 6019,
      "Ġsignificative": 6020,
      "ĠFace": 6021,
      "ĠvÃ©lo": 6022,
      "Ġvenir": 6023,
      "vier": 6024,
      "apprendre": 6025,
      "Ġsavons": 6026,
      "Ġobligations": 6027,
      "Ġcoordonn": 6028,
      "ivi": 6029,
      "Ġmontagn": 6030,
      "ĠmolÃ©cules": 6031,
      "Ġchamps": 6032,
      "rog": 6033,
      "Ġdiagnostic": 6034,
      "Ġlis": 6035,
      "culaires": 6036,
      "Ã©mo": 6037,
      "Ġmanqu": 6038,
      "Ãĩa": 6039,
      "effici": 6040,
      "Ġnormal": 6041,
      "ĠdÃ©couvert": 6042,
      "Ġplacement": 6043,
      "oncÃ©": 6044,
      "Ġpaiements": 6045,
      "ĠÃ¢g": 6046,
      "Ġnar": 6047,
      "Ġcade": 6048,
      "ĠentraÃ®nÃ©": 6049,
      "humiditÃ©": 6050,
      "lor": 6051,
      "Ġpointe": 6052,
      "**": 6053,
      "estation": 6054,
      "Ġconstamment": 6055,
      "ĠvÃ©hicule": 6056,
      "Ġracine": 6057,
      "Åĵuvre": 6058,
      "().": 6059,
      "Ġprofit": 6060,
      "atisation": 6061,
      "Ġmaximum": 6062,
      "Ġgal": 6063,
      "value": 6064,
      "auth": 6065,
      "Ġbeurre": 6066,
      "Ġsalle": 6067,
      "Ġtwe": 6068,
      "accent": 6069,
      "Au": 6070,
      "ĠLin": 6071,
      "truis": 6072,
      "ĠrÃ´": 6073,
      "Ġaffaires": 6074,
      "Ġregr": 6075,
      "ĠdÃ©cidÃ©": 6076,
      "amÃ©lioration": 6077,
      "animaux": 6078,
      "Ġclassique": 6079,
      "tionnelles": 6080,
      "ĠÃ©quiv": 6081,
      "Ġsk": 6082,
      "Ġpropose": 6083,
      "Ġmur": 6084,
      "ĠthÃ©ra": 6085,
      "Ġlongues": 6086,
      "Ġwhile": 6087,
      "rin": 6088,
      "Ġstat": 6089,
      "Ġhe": 6090,
      "Ġprennent": 6091,
      "Ġconfor": 6092,
      "ĠsuggÃ¨re": 6093,
      "mod": 6094,
      "Ġprofiter": 6095,
      "Ġrob": 6096,
      "Inde": 6097,
      "Ġlocale": 6098,
      "Ġrout": 6099,
      "Ġalternatives": 6100,
      "Ġtrib": 6101,
      "Ġreti": 6102,
      "Ġcandidat": 6103,
      "ammif": 6104,
      "IM": 6105,
      "ĠprogrÃ¨s": 6106,
      "Ġcolon": 6107,
      "ĠindÃ©": 6108,
      "Ġdangereux": 6109,
      "Ġsoph": 6110,
      "agues": 6111,
      "Ġdrog": 6112,
      "Ġcomposition": 6113,
      "hÃ©s": 6114,
      "Ġclar": 6115,
      "sub": 6116,
      "Ġressemble": 6117,
      "Ġreprodu": 6118,
      "Ġconnus": 6119,
      "ĠÃ©quations": 6120,
      "Ġderniers": 6121,
      "33": 6122,
      "abs": 6123,
      "Ġresult": 6124,
      "Ġreb": 6125,
      "ĠdÃ©duction": 6126,
      "ĠattÃ©n": 6127,
      "description": 6128,
      "Ġ197": 6129,
      "Ã©vÃ©nement": 6130,
      "Ġconflit": 6131,
      "Ġpopulations": 6132,
      "ĠÃītat": 6133,
      "Ġconcentration": 6134,
      "Ġexamin": 6135,
      "Ġsymboles": 6136,
      "Ġlecteurs": 6137,
      "Ġpouvait": 6138,
      "Ġrencon": 6139,
      "ĠamÃ©ricains": 6140,
      "Ġmaximiser": 6141,
      "Ġaffecte": 6142,
      "quÃ©es": 6143,
      "Ġpoisson": 6144,
      "exis": 6145,
      "ĠreconnaÃ®tre": 6146,
      "qr": 6147,
      "uit": 6148,
      "Ġcouverture": 6149,
      "Phone": 6150,
      "endes": 6151,
      "rammes": 6152,
      "Ġmagasins": 6153,
      "ĠremportÃ©": 6154,
      "Ġdiam": 6155,
      "Ġajoute": 6156,
      "Ġessentielle": 6157,
      "omÃ©tri": 6158,
      "Ġavantage": 6159,
      "Ġexpli": 6160,
      "tÃ©rieure": 6161,
      "Ġfamili": 6162,
      "WriteLine": 6163,
      "Ġtransformer": 6164,
      "leur": 6165,
      "Ġscol": 6166,
      "ĠbÃ©nÃ©fices": 6167,
      "hor": 6168,
      "ĠrÃ©ussite": 6169,
      "Ġexaminer": 6170,
      "ĠSte": 6171,
      "ĠentiÃ¨rement": 6172,
      "Ġcens": 6173,
      "ĠUS": 6174,
      "appelle": 6175,
      "endra": 6176,
      "Ġestim": 6177,
      "Ġexcep": 6178,
      "Ġpoulet": 6179,
      "annÃ©es": 6180,
      "Ġchocolat": 6181,
      "Ġjaune": 6182,
      "Ġgard": 6183,
      "0000": 6184,
      "ives": 6185,
      "Ġgrammatic": 6186,
      "ĠprÃ©cisÃ©ment": 6187,
      "Ġpartage": 6188,
      "Ġprofess": 6189,
      "oureux": 6190,
      "Ġaiment": 6191,
      "neu": 6192,
      "Ġmettez": 6193,
      "ĠMe": 6194,
      "Ġpizz": 6195,
      "cuits": 6196,
      "Ġdouleurs": 6197,
      "ĠnuclÃ©aire": 6198,
      "Ġpourrions": 6199,
      "siez": 6200,
      "ĠÃ©levÃ©es": 6201,
      "ĠÃ©tude": 6202,
      "Ġrespec": 6203,
      "Ġsauve": 6204,
      "iforn": 6205,
      "entiment": 6206,
      "Ġsoud": 6207,
      "Ġnaviguer": 6208,
      "Ġfic": 6209,
      "Ġrestric": 6210,
      "Ġpotable": 6211,
      "ctor": 6212,
      "Ġglobal": 6213,
      "Ġallant": 6214,
      "ĠcrÃ©ez": 6215,
      "ĠtÃ©lÃ©charg": 6216,
      "alogue": 6217,
      "ĠtravaillÃ©": 6218,
      "list": 6219,
      "Ġcouvrir": 6220,
      "Ġstatic": 6221,
      "Ġprochaine": 6222,
      "Ġ120": 6223,
      "ĠrÃ©cemment": 6224,
      "Ġrecue": 6225,
      "ades": 6226,
      "Ġsubs": 6227,
      "Ġrespectu": 6228,
      "Ġdessin": 6229,
      "Ġ$.": 6230,
      "atriÃ¨me": 6231,
      "pren": 6232,
      "Ġblog": 6233,
      "Ġpuissant": 6234,
      "Ġrespiration": 6235,
      "ditation": 6236,
      "Ġfournissant": 6237,
      "Ġ2021": 6238,
      "Ã©viter": 6239,
      "asp": 6240,
      "Ã©quilibre": 6241,
      "Ġblockchain": 6242,
      "ĠthÃ©or": 6243,
      "Ã¨ge": 6244,
      "matique": 6245,
      "ĠÃ©lo": 6246,
      "ics": 6247,
      "Ġpersonnels": 6248,
      "color": 6249,
      "ĠsituÃ©": 6250,
      "ĠAnalyse": 6251,
      "Ġinvestir": 6252,
      "ali": 6253,
      "Ġ!=": 6254,
      "Ġ198": 6255,
      "Ġcontinu": 6256,
      "Ġsynonymes": 6257,
      "Ġnaissance": 6258,
      "Ġ(\"": 6259,
      "Ġboissons": 6260,
      "ieuse": 6261,
      "Ã©nier": 6262,
      "Ġarbre": 6263,
      "Ġjson": 6264,
      "ĠMan": 6265,
      "ee": 6266,
      "Ġresponsables": 6267,
      "lib": 6268,
      "Ġconven": 6269,
      "fil": 6270,
      "Ġlarg": 6271,
      "Ã¨ve": 6272,
      "ĠTw": 6273,
      "println": 6274,
      "tp": 6275,
      "Ġmous": 6276,
      "Ġendomm": 6277,
      "ĠSal": 6278,
      "Ġpira": 6279,
      "ĠmÃ©dicament": 6280,
      "ĠDÃ©finir": 6281,
      "}{": 6282,
      "once": 6283,
      "Ġlac": 6284,
      "Ġlogo": 6285,
      "ĠdÃ©taillÃ©": 6286,
      "random": 6287,
      "irurg": 6288,
      "ĠpÃ¢te": 6289,
      "Ġtoucher": 6290,
      "Ġbarre": 6291,
      "tise": 6292,
      "Ġcardiaque": 6293,
      "Ġgraines": 6294,
      "agerie": 6295,
      "oÃ¹": 6296,
      "Ġrobots": 6297,
      "Ġsain": 6298,
      "Ġcommencent": 6299,
      "Ġdestination": 6300,
      "Ġkilom": 6301,
      "Ġset": 6302,
      "rations": 6303,
      "ĠsouhaitÃ©": 6304,
      "Ã©par": 6305,
      "tiÃ¨re": 6306,
      "ĠRÃ©p": 6307,
      "aders": 6308,
      "Ġattirer": 6309,
      "Ġproches": 6310,
      "count": 6311,
      "ulaires": 6312,
      "Ã©nierie": 6313,
      "ĠagrÃ©able": 6314,
      "och": 6315,
      "Ġinfluencer": 6316,
      "antillon": 6317,
      "Qu": 6318,
      "Ã©th": 6319,
      "Ġlocal": 6320,
      "ĠexpÃ©riment": 6321,
      "Ġfibres": 6322,
      "exc": 6323,
      "Ġaccro": 6324,
      "Ġfutur": 6325,
      "intÃ©gration": 6326,
      "tements": 6327,
      "Ġadresse": 6328,
      "go": 6329,
      "ĠList": 6330,
      "Ġtransports": 6331,
      "Ġexprimer": 6332,
      "Ã§on": 6333,
      "Ġcommuns": 6334,
      "Ġcontraintes": 6335,
      "ĠTrans": 6336,
      "ĠrÃ©elle": 6337,
      "Ġ26": 6338,
      "Ġvacances": 6339,
      "ĠFacebook": 6340,
      "Ġavis": 6341,
      "mot": 6342,
      "nÃ©s": 6343,
      "Ġrempli": 6344,
      "`,": 6345,
      "Ã©re": 6346,
      "ĠRed": 6347,
      "ĠinfÃ©rieure": 6348,
      "ĠpÃ¨re": 6349,
      "Ġparl": 6350,
      "teindre": 6351,
      "astroph": 6352,
      "Ġcris": 6353,
      "ush": 6354,
      "ĠreprÃ©sentent": 6355,
      "Ġstric": 6356,
      "Ġerr": 6357,
      "ĠCliquez": 6358,
      "ĠconÃ§us": 6359,
      "px": 6360,
      "Ġfaciles": 6361,
      "ĠcontribuÃ©": 6362,
      "ĠreÃ§oit": 6363,
      "Ġindex": 6364,
      "Ġsurvie": 6365,
      "jou": 6366,
      "ĠDeux": 6367,
      "Ġdoux": 6368,
      "ortez": 6369,
      "Ġconserver": 6370,
      "Ġjudici": 6371,
      "Ġcompter": 6372,
      "ĠIns": 6373,
      "essayer": 6374,
      "ĠBeau": 6375,
      "ĠmÃ©dicales": 6376,
      "ĠspÃ©ciaux": 6377,
      "ĠdÃ©pression": 6378,
      "ĠpayÃ©": 6379,
      "lev": 6380,
      "ĠefficacitÃ©": 6381,
      "Ġexercices": 6382,
      "rand": 6383,
      "tÃªte": 6384,
      "Ġcord": 6385,
      "Ġore": 6386,
      "paravant": 6387,
      "Ġattentivement": 6388,
      "ublic": 6389,
      "ĠmarchÃ©s": 6390,
      "Ġballon": 6391,
      "Ġurb": 6392,
      "iture": 6393,
      "Ã©tudi": 6394,
      "Ġcompati": 6395,
      "Ġinu": 6396,
      "ositÃ©": 6397,
      "Ġvisiteurs": 6398,
      "ĠMettez": 6399,
      "Ġtuer": 6400,
      "Ġbalises": 6401,
      "Ġhistoires": 6402,
      "';": 6403,
      "obile": 6404,
      "Ġmobiles": 6405,
      "Ġpaire": 6406,
      "ĠĠĠĠĠĠĠĠĠĠĠ": 6407,
      "ĠpandÃ©mie": 6408,
      "urÃ©": 6409,
      "taire": 6410,
      "Ġsoul": 6411,
      "ĠdÃ©cider": 6412,
      "Ġconcurrence": 6413,
      "Ġappris": 6414,
      "ĠdÃ©couverte": 6415,
      "Ġbol": 6416,
      "ĠpersonnalisÃ©es": 6417,
      "Ġaient": 6418,
      "train": 6419,
      "install": 6420,
      "Ġpertes": 6421,
      "Ġimmun": 6422,
      "ook": 6423,
      "Ġmax": 6424,
      "Ġcroissant": 6425,
      "Ġriz": 6426,
      "Pr": 6427,
      "mage": 6428,
      "enture": 6429,
      "ĠrÃ©chauffement": 6430,
      "sum": 6431,
      "sectes": 6432,
      "Ġbalise": 6433,
      "tionnel": 6434,
      "--------------------------------": 6435,
      "ĠimprÃ©": 6436,
      "ĠassociÃ©": 6437,
      "Ġdimensions": 6438,
      "uff": 6439,
      "ĠmÃ¢": 6440,
      "chÃ©es": 6441,
      "ĠmÃ©taphore": 6442,
      "Lorsque": 6443,
      "trÃ©": 6444,
      "Ġtort": 6445,
      "Ġinput": 6446,
      "ĠdifficultÃ©": 6447,
      "Ġmange": 6448,
      "ĠÃ©motionnelle": 6449,
      "Or": 6450,
      "ĠpÃ¢": 6451,
      "Ġfutures": 6452,
      "irs": 6453,
      "ĠTe": 6454,
      "Ġinterface": 6455,
      "Ġencourage": 6456,
      "const": 6457,
      "Ġmontagnes": 6458,
      "Ġimpliquer": 6459,
      "dage": 6460,
      "ĠtÃ´t": 6461,
      "ĠSer": 6462,
      "Ġimpossible": 6463,
      "Ġstyles": 6464,
      "Ġnouvel": 6465,
      "ĠÃ©tudiant": 6466,
      "ĠColle": 6467,
      "Ġesti": 6468,
      "AI": 6469,
      "ettre": 6470,
      "ussie": 6471,
      "interface": 6472,
      "agers": 6473,
      "ĠVer": 6474,
      "tain": 6475,
      "ĠpublicitÃ©s": 6476,
      "ĠprÃ©paration": 6477,
      "ĠMa": 6478,
      "Ġprocesseur": 6479,
      "ĠmontrÃ©": 6480,
      "tabilitÃ©": 6481,
      "Ġpassionn": 6482,
      "Ġrandonn": 6483,
      "Ġcapteurs": 6484,
      "Ġnormale": 6485,
      "Des": 6486,
      "sole": 6487,
      "ĠadaptÃ©": 6488,
      "Ġfiable": 6489,
      "down": 6490,
      "rime": 6491,
      "Ĥ¬": 6492,
      "ĠGÃ©nÃ©rer": 6493,
      "Ġsouhaite": 6494,
      "ĠnÃ©cessairement": 6495,
      "Ġlistes": 6496,
      "ĠquatriÃ¨me": 6497,
      "Ġcourante": 6498,
      "ĠCaliforn": 6499,
      "Ġtre": 6500,
      "Ġtal": 6501,
      "base": 6502,
      "nelle": 6503,
      "Ġpomme": 6504,
      "Ġtrouvez": 6505,
      "ĠprÃ©diction": 6506,
      "Ġconduite": 6507,
      "oniste": 6508,
      "DDDD": 6509,
      "ĠpropriÃ©taires": 6510,
      "ding": 6511,
      "Ġservir": 6512,
      "Ġsmart": 6513,
      "the": 6514,
      "Ġvraie": 6515,
      "Ġpaque": 6516,
      "Ġfunc": 6517,
      "Ġdiss": 6518,
      "mazon": 6519,
      "Ġfou": 6520,
      "rame": 6521,
      "aix": 6522,
      "Ġmilliers": 6523,
      "Te": 6524,
      "quiÃ©": 6525,
      "Ġsignes": 6526,
      "Ġvivant": 6527,
      "hÃ©sitez": 6528,
      "xy": 6529,
      "Ġcroyances": 6530,
      "aimer": 6531,
      "blication": 6532,
      "ĠrÃ©flÃ©chir": 6533,
      "Ġparfaitement": 6534,
      "Ġbus": 6535,
      "Ġrendez": 6536,
      "Ġopinions": 6537,
      "Ġap": 6538,
      "Ġextern": 6539,
      "ignez": 6540,
      "ĠÃīcrivez": 6541,
      "ere": 6542,
      "Ġchirurg": 6543,
      "Ġvote": 6544,
      "uage": 6545,
      "enreg": 6546,
      "Ġcrimin": 6547,
      "Ġdemandez": 6548,
      "ĠQuelqu": 6549,
      "Ã¨che": 6550,
      "rigue": 6551,
      "ĠÃ©coles": 6552,
      "ĠdÃ©comp": 6553,
      "ĠliÃ©e": 6554,
      "Ġculturels": 6555,
      "ĠÃ©motionnel": 6556,
      "ror": 6557,
      "Ġparent": 6558,
      "Ġprofonde": 6559,
      "ĠrÃ©duisant": 6560,
      "dies": 6561,
      "ums": 6562,
      "Ġrestaurants": 6563,
      "visi": 6564,
      "qrt": 6565,
      "Ġgout": 6566,
      "Ġarrive": 6567,
      "alimentation": 6568,
      "Ġadultes": 6569,
      "Ġsophis": 6570,
      "dus": 6571,
      "ĠhypothÃ©c": 6572,
      "Allemagne": 6573,
      "Ġhach": 6574,
      "Ġappren": 6575,
      "ĠÃ©conomies": 6576,
      "ĠgagnÃ©": 6577,
      "Ġcoeffici": 6578,
      "Ġ400": 6579,
      "Ġsyntaxe": 6580,
      "jonc": 6581,
      "orisation": 6582,
      "try": 6583,
      "ĠimplÃ©menter": 6584,
      "Ġsignaux": 6585,
      "ĠprÃ©fÃ©rable": 6586,
      "Ġinvent": 6587,
      "bri": 6588,
      "cin": 6589,
      "Ġavions": 6590,
      "Ġmajeur": 6591,
      "ĠÃ©ten": 6592,
      "Ġemprun": 6593,
      "yS": 6594,
      "iquement": 6595,
      "ĠrÃ©guliÃ¨res": 6596,
      "Ġtables": 6597,
      "idÃ©l": 6598,
      "Ġtext": 6599,
      "Ġnettoyage": 6600,
      "Ġpropag": 6601,
      "Ġbiod": 6602,
      "Ġpromotion": 6603,
      "Ġdirige": 6604,
      "Ġvivent": 6605,
      "Ġterrest": 6606,
      "Ġmammif": 6607,
      "athie": 6608,
      "existe": 6609,
      "Ġsouris": 6610,
      "ĠIdentifier": 6611,
      "RS": 6612,
      "Ġfruit": 6613,
      "ube": 6614,
      "Ġservi": 6615,
      "Ġfiltrer": 6616,
      "identitÃ©": 6617,
      "='": 6618,
      "Ġstimul": 6619,
      "Ġtransmission": 6620,
      "ĠspÃ©cial": 6621,
      "Ġvariations": 6622,
      "inflation": 6623,
      "Ġrembour": 6624,
      "uteur": 6625,
      "Ġrendu": 6626,
      "ĠdisponibilitÃ©": 6627,
      "ommer": 6628,
      "ted": 6629,
      "ĠOui": 6630,
      "Ġ2020": 6631,
      "max": 6632,
      "gh": 6633,
      "tionnels": 6634,
      "Ġdemi": 6635,
      "arriÃ¨re": 6636,
      "ĠdonnÃ©s": 6637,
      "Ġputs": 6638,
      "Ġcentrale": 6639,
      "ND": 6640,
      "aime": 6641,
      "ĠForm": 6642,
      "Ġfron": 6643,
      "ĠgÃ¢teau": 6644,
      "ĠrÃ©sol": 6645,
      "Ġcalme": 6646,
      "Ġtol": 6647,
      "Ġespaces": 6648,
      "Ġpartenaire": 6649,
      "verbe": 6650,
      "Ġnationale": 6651,
      "ĠIdentifiez": 6652,
      "Ġenvironnements": 6653,
      "Ġsauv": 6654,
      "Ġcalend": 6655,
      "Ġpublics": 6656,
      "Ġsupervis": 6657,
      "ĠToutefois": 6658,
      "Ġguide": 6659,
      "ĠchangÃ©": 6660,
      "Ġjustice": 6661,
      "ks": 6662,
      "Ġbourse": 6663,
      "Ġcatastroph": 6664,
      "ĠdÃ©plac": 6665,
      "ĠDÃ©termin": 6666,
      "Ġdisent": 6667,
      "Ġdomin": 6668,
      "Ġkg": 6669,
      "ĠApple": 6670,
      "Ġcos": 6671,
      "ano": 6672,
      "irst": 6673,
      "Ġroutine": 6674,
      "ĠterminÃ©": 6675,
      "Ġcell": 6676,
      "Ġactuelles": 6677,
      "ĠpersonnalisÃ©e": 6678,
      "Ġchambre": 6679,
      "ĠprÃ©vis": 6680,
      "ĠcolÃ¨re": 6681,
      "ouse": 6682,
      "ĠPe": 6683,
      "siers": 6684,
      "Ġverb": 6685,
      "Ġmultiples": 6686,
      "Ã©rÃ©e": 6687,
      "Ã©min": 6688,
      "orld": 6689,
      "));": 6690,
      "acci": 6691,
      "Ġod": 6692,
      "Ġnommer": 6693,
      "Ġcoin": 6694,
      "ĠmÃ©ditation": 6695,
      "Europe": 6696,
      "yp": 6697,
      "Ġsoir": 6698,
      "Ġcasser": 6699,
      "ju": 6700,
      "Ġesprit": 6701,
      "arning": 6702,
      "Ġinitial": 6703,
      "icienne": 6704,
      "clÃ©s": 6705,
      "John": 6706,
      "ĠintÃ©ressant": 6707,
      "enc": 6708,
      "Ġactif": 6709,
      "Ġtroubles": 6710,
      "Ġcouper": 6711,
      "ĠsÃ©cher": 6712,
      "indiv": 6713,
      "ĠÃ©valu": 6714,
      "Ġlutte": 6715,
      "Ġpackage": 6716,
      "illon": 6717,
      "Ġdispose": 6718,
      "Ġmorceau": 6719,
      "Ġsaisir": 6720,
      "Ġbillets": 6721,
      "ĠCel": 6722,
      "Ġrares": 6723,
      "ĠAnd": 6724,
      "ĠRussie": 6725,
      "Ġapproches": 6726,
      "Ġparticiper": 6727,
      "Ġcogni": 6728,
      "endroit": 6729,
      "Ġastu": 6730,
      "jonctif": 6731,
      "ĠpÃª": 6732,
      "Ġcodes": 6733,
      "Ġ75": 6734,
      "main": 6735,
      "Ã©raux": 6736,
      "ĠdÃ©cenn": 6737,
      "Ġdemandes": 6738,
      ".\",": 6739,
      "OT": 6740,
      "ĠSupposons": 6741,
      "Ġculturel": 6742,
      "Ġnavigateur": 6743,
      "habit": 6744,
      "Ġmodel": 6745,
      "Ġmy": 6746,
      "als": 6747,
      "ĠOuv": 6748,
      "Pro": 6749,
      "Ġtempore": 6750,
      "offre": 6751,
      "ĠpÃ©trole": 6752,
      "tilitÃ©": 6753,
      "ĠSoyez": 6754,
      "casion": 6755,
      "ĠfidÃ©l": 6756,
      "toire": 6757,
      "Ã¨vre": 6758,
      "ĠclientÃ¨le": 6759,
      "Ġsensibil": 6760,
      "IB": 6761,
      "anes": 6762,
      "alph": 6763,
      "Ġremplac": 6764,
      "Ġpot": 6765,
      "influ": 6766,
      "Ġfu": 6767,
      "ĠÃ©thique": 6768,
      "Ġfant": 6769,
      "Ġhi": 6770,
      "osÃ©s": 6771,
      "Ã©galitÃ©": 6772,
      "Ġmajeure": 6773,
      "do": 6774,
      "Ġfiables": 6775,
      "Ġfaux": 6776,
      "Ġincorporer": 6777,
      "ĠDieu": 6778,
      "()`": 6779,
      "Ġtraitements": 6780,
      "Ġjapon": 6781,
      "avance": 6782,
      "Ġorb": 6783,
      "agnes": 6784,
      "ĠÃīval": 6785,
      "ĠattÃ©nuer": 6786,
      "AL": 6787,
      "yl": 6788,
      "Ġbul": 6789,
      "Ġallerg": 6790,
      "Ã©chelle": 6791,
      "Ġconform": 6792,
      "igner": 6793,
      "Ġdites": 6794,
      "Ġwords": 6795,
      "Ġaccrue": 6796,
      "ĠnÃ©gatives": 6797,
      "Ã®ner": 6798,
      "ĠELI": 6799,
      "ĠbasÃ©s": 6800,
      "Ġautomatis": 6801,
      "dure": 6802,
      "Ġentour": 6803,
      "Ġexternes": 6804,
      "ama": 6805,
      "Ġpaix": 6806,
      "Ġnoire": 6807,
      "Ġaccomp": 6808,
      "rans": 6809,
      "Ġbilles": 6810,
      "ĠĠĠĠĠĠĠĠĠĠĠĠĠĠĠĠĠ": 6811,
      "Ġexcellente": 6812,
      "Ġcloud": 6813,
      "Ġarguments": 6814,
      "Ġbritannique": 6815,
      "Ġclimat": 6816,
      "Ġrembourser": 6817,
      "Ġtrous": 6818,
      "Ġmarques": 6819,
      "Ġobtenez": 6820,
      "Ġattentes": 6821,
      "Ġconseiller": 6822,
      "Ġferme": 6823,
      "rÃ©g": 6824,
      "ĠIs": 6825,
      "Ġforts": 6826,
      "rix": 6827,
      "Ġorganismes": 6828,
      "analyser": 6829,
      "Ġondes": 6830,
      "Ġtor": 6831,
      "Ġdisting": 6832,
      "ĠlittÃ©rature": 6833,
      "ĠportÃ©e": 6834,
      "ĠÃ©cosystÃ¨mes": 6835,
      "Ġbits": 6836,
      "Ġfinancement": 6837,
      "Ġbasse": 6838,
      "ĠCalifornie": 6839,
      "tok": 6840,
      "ĠPensez": 6841,
      "Ġcollection": 6842,
      "ĠdÃ©croissant": 6843,
      "Ã©cl": 6844,
      "Ġvoler": 6845,
      "Ġstatistique": 6846,
      "Ġrenouvel": 6847,
      "200": 6848,
      "ĠrÃªves": 6849,
      "irez": 6850,
      "Ġscores": 6851,
      "Ġdiscussion": 6852,
      "TP": 6853,
      "Ġthat": 6854,
      "Ġouvrir": 6855,
      "Ġenvisager": 6856,
      "lob": 6857,
      "Ġcuit": 6858,
      "ĠAnaly": 6859,
      "file": 6860,
      "Ġmut": 6861,
      "onnage": 6862,
      "drogÃ¨ne": 6863,
      "riculture": 6864,
      "mitÃ©": 6865,
      "ĠrÃ©union": 6866,
      "escalader": 6867,
      "lient": 6868,
      "ĠGe": 6869,
      "Ġinterne": 6870,
      "Ils": 6871,
      "Ġrace": 6872,
      "Ġdevenue": 6873,
      "Ġinstant": 6874,
      "Ġchansons": 6875,
      "Ġsatisfait": 6876,
      "AC": 6877,
      "Ġtiers": 6878,
      "Ġstatut": 6879,
      "rents": 6880,
      "arc": 6881,
      "Ġstimuler": 6882,
      "ĠschÃ©ma": 6883,
      "ĠÃ©laborer": 6884,
      "Ġhasard": 6885,
      "Ġtab": 6886,
      "Ġopen": 6887,
      "Ġcommand": 6888,
      "Ġemplois": 6889,
      "ĠCommencez": 6890,
      "of": 6891,
      "Ġrayon": 6892,
      "illeurs": 6893,
      "Ġprochain": 6894,
      "opÃ©ration": 6895,
      "Ġserez": 6896,
      "Ġprogramm": 6897,
      "Ġexces": 6898,
      "Ġcontrat": 6899,
      "ĠFournir": 6900,
      "ĠEurope": 6901,
      "ĠcrÃ©Ã©e": 6902,
      "adÃ©m": 6903,
      "prises": 6904,
      "Ġconfir": 6905,
      "ĠextrÃªmes": 6906,
      "ĠElles": 6907,
      "ĠprÃ©cÃ©dent": 6908,
      "Ġcandidats": 6909,
      "visionnement": 6910,
      "Ã©ten": 6911,
      "ĠCont": 6912,
      "ka": 6913,
      "ĠTest": 6914,
      "ĠmÃ©dicale": 6915,
      "ĠplanÃ¨tes": 6916,
      "lettes": 6917,
      "Ġlargeur": 6918,
      "wer": 6919,
      "Ġmanif": 6920,
      "ĠfraÃ®": 6921,
      "ĠpersonnalisÃ©s": 6922,
      "())": 6923,
      "ater": 6924,
      "Ġcapt": 6925,
      "ĠYou": 6926,
      "existence": 6927,
      "rivez": 6928,
      "ĠdÃ©taillÃ©es": 6929,
      "dant": 6930,
      "Ġpourra": 6931,
      "histor": 6932,
      "Ġessaie": 6933,
      "Ġtok": 6934,
      "Ġrow": 6935,
      "Ġrang": 6936,
      "ĠkilomÃ¨tres": 6937,
      "ĠmaÃ®": 6938,
      "Ġemplacement": 6939,
      "logisme": 6940,
      "Ġsyllogisme": 6941,
      "ley": 6942,
      "ouper": 6943,
      "Ġcontribuent": 6944,
      "ĠpÃ©riodes": 6945,
      "Ġfarine": 6946,
      "Ġperturb": 6947,
      "thÃ¨se": 6948,
      "ĠFaire": 6949,
      "Ġexistentiel": 6950,
      "ĠÃ©valuation": 6951,
      "ĠÃ©quipements": 6952,
      "gle": 6953,
      "oile": 6954,
      "Ġfaudra": 6955,
      "ints": 6956,
      "Ġpuisque": 6957,
      "Ġperspectives": 6958,
      "Ġord": 6959,
      "Ġauparavant": 6960,
      "Ġrotation": 6961,
      "Ġblancs": 6962,
      "Ġaccessible": 6963,
      "Ġuser": 6964,
      "Ġprotag": 6965,
      "ĠSp": 6966,
      "Ġ($": 6967,
      "Ġatomes": 6968,
      "ĠdÃ©lici": 6969,
      "Ġsophisti": 6970,
      "blir": 6971,
      "Ġsacs": 6972,
      "ache": 6973,
      "Ġsimulation": 6974,
      "Ġcordes": 6975,
      "Ġindividuelles": 6976,
      "Ġsoyez": 6977,
      "dence": 6978,
      "ottes": 6979,
      "ĠacadÃ©m": 6980,
      "ĠrÃ©gulier": 6981,
      "Text": 6982,
      "ataire": 6983,
      "Ġreligion": 6984,
      "Ã©tais": 6985,
      "tiers": 6986,
      "Ġrecettes": 6987,
      "EN": 6988,
      "ĠÃ©norme": 6989,
      "ĠcollÃ¨g": 6990,
      "Ġpes": 6991,
      "Ġfabriquer": 6992,
      "Ġsimplification": 6993,
      "ĠPersonne": 6994,
      "Ġdisjonctif": 6995,
      "192": 6996,
      "Bonjour": 6997,
      "Ġfis": 6998,
      "fact": 6999,
      "Ġvisite": 7000,
      "Ġbata": 7001,
      "ĠappelÃ©s": 7002,
      "idth": 7003,
      "Ġterminer": 7004,
      "Ġnational": 7005,
      "ĠAmÃ©rique": 7006,
      "Ġmondial": 7007,
      "Ġconfiguration": 7008,
      "ĠÃ©tabli": 7009,
      "issements": 7010,
      "ĠbÃ©bÃ©": 7011,
      "faces": 7012,
      "Ġnez": 7013,
      "ĠParis": 7014,
      "izon": 7015,
      "Ġsor": 7016,
      "rad": 7017,
      "lements": 7018,
      "Ġsert": 7019,
      "Ġtailles": 7020,
      "Ġminute": 7021,
      "ams": 7022,
      "Ġmarch": 7023,
      "diteur": 7024,
      "ĠÅĵuvres": 7025,
      "ep": 7026,
      "Ġpublication": 7027,
      "tinÃ©ra": 7028,
      "Ġjambes": 7029,
      "Ġspecta": 7030,
      "score": 7031,
      "67": 7032,
      "Ġtop": 7033,
      "Ġfalse": 7034,
      "ctivement": 7035,
      "Ġresul": 7036,
      "ĠâĢĵ": 7037,
      "bon": 7038,
      "Ġrenforce": 7039,
      "Print": 7040,
      "lÃł": 7041,
      "Ġsing": 7042,
      "Ġbis": 7043,
      "Ġcrime": 7044,
      "Ġparticipation": 7045,
      "ĠLaissez": 7046,
      "ressionn": 7047,
      "Ġ\",": 7048,
      "Ġdessous": 7049,
      "Ġdossier": 7050,
      "Ġrencontrer": 7051,
      "Ġvapeur": 7052,
      "Ġmig": 7053,
      "Ġinsp": 7054,
      "Ġpoudre": 7055,
      "Ġby": 7056,
      "Ġaper": 7057,
      "ĠcoÃ»teux": 7058,
      "Ġparvenir": 7059,
      "exper": 7060,
      "dans": 7061,
      "Ġtas": 7062,
      "rif": 7063,
      "ĠprÃ©cip": 7064,
      "applications": 7065,
      "ĠcrÃ©ative": 7066,
      "Ġgravitation": 7067,
      "Ġrejo": 7068,
      "andez": 7069,
      "Ġlocation": 7070,
      "ditions": 7071,
      "Ġgras": 7072,
      "Ġpouvant": 7073,
      "sitÃ©": 7074,
      "Ġlic": 7075,
      "articles": 7076,
      "Ġmotivation": 7077,
      "Ġpoursuivre": 7078,
      "ADN": 7079,
      "Ġdates": 7080,
      "ĠmÃ©decine": 7081,
      "Id": 7082,
      "appel": 7083,
      "tons": 7084,
      "Ġenvironnementales": 7085,
      "Ġtourne": 7086,
      "rivÃ©e": 7087,
      "Ġcertainement": 7088,
      "Ġcombusti": 7089,
      "Ġassis": 7090,
      "Ġpouss": 7091,
      "ĠFinalement": 7092,
      "ĠvÃ©rifie": 7093,
      "Ġanciens": 7094,
      "Ġhabitants": 7095,
      "At": 7096,
      "mith": 7097,
      "Ġtasses": 7098,
      "novation": 7099,
      "ĠlimitÃ©e": 7100,
      "LT": 7101,
      "Ġsolides": 7102,
      "heur": 7103,
      "my": 7104,
      "Ġign": 7105,
      "ĠÃ©volu": 7106,
      "ĠcoordonnÃ©es": 7107,
      "Ġcray": 7108,
      "Ġrati": 7109,
      "Internet": 7110,
      "Ġcherchent": 7111,
      "RA": 7112,
      "pour": 7113,
      "Ġpartout": 7114,
      "Ġgrille": 7115,
      "Ġminuscules": 7116,
      "Ġvalidation": 7117,
      "Ġabsol": 7118,
      "Ġsombre": 7119,
      "Ġcasse": 7120,
      "Ġoffres": 7121,
      "Ġrenouvelables": 7122,
      "Ġchoisissez": 7123,
      "ĠmajoritÃ©": 7124,
      "Ġcorriger": 7125,
      "Ãªle": 7126,
      "ĠGardez": 7127,
      "ĠInde": 7128,
      "ĠcompÃ©tence": 7129,
      "Ġfigure": 7130,
      "rie": 7131,
      "Ġcond": 7132,
      "Union": 7133,
      "Ġfinance": 7134,
      "Ġyou": 7135,
      "phrase": 7136,
      "ĠGPT": 7137,
      "aitre": 7138,
      "ĠÃ©conomie": 7139,
      "ouverture": 7140,
      "ĠitÃ©": 7141,
      "ĠmÃ©n": 7142,
      "ĠÃ©l": 7143,
      "exac": 7144,
      "ĠParfois": 7145,
      "Ġtraditionnelles": 7146,
      "Ġescalade": 7147,
      "pos": 7148,
      "Ã©rez": 7149,
      "attra": 7150,
      "Ġoriginale": 7151,
      "ular": 7152,
      "igre": 7153,
      "Ġcampagnes": 7154,
      "Ġattray": 7155,
      "ustralie": 7156,
      "CH": 7157,
      "split": 7158,
      "Ġgars": 7159,
      "Ġimmobil": 7160,
      "Ġtot": 7161,
      "Ġchatbot": 7162,
      "Ġtranches": 7163,
      "gon": 7164,
      "Ġhydra": 7165,
      "Ġmener": 7166,
      "sius": 7167,
      "exploration": 7168,
      "Ġnuage": 7169,
      "ĠAfficher": 7170,
      "ĠcrÃ©atures": 7171,
      "Ġmanipuler": 7172,
      "ĠJack": 7173,
      "Ġsupposant": 7174,
      "Ġatmosph": 7175,
      "ĠprÃ©mises": 7176,
      "Ġjoie": 7177,
      "ĠcausÃ©": 7178,
      "tension": 7179,
      "Ġperman": 7180,
      "Ġcoucher": 7181,
      "onnÃªte": 7182,
      "Ã©coute": 7183,
      "Ġoptimale": 7184,
      "Ġrichesse": 7185,
      "ĠSin": 7186,
      "Ġdioxyde": 7187,
      "plan": 7188,
      "map": 7189,
      "ĠaugmentÃ©": 7190,
      "Ġessentiels": 7191,
      "Ġtombe": 7192,
      "ymp": 7193,
      "Ġtyp": 7194,
      "Ġcontextes": 7195,
      "Ġattaques": 7196,
      "Ġrestrictions": 7197,
      "len": 7198,
      "Ġaime": 7199,
      "Ġ64": 7200,
      "sivement": 7201,
      "Ġpizza": 7202,
      "Ġcontraire": 7203,
      "ĠÃ©couter": 7204,
      "ĠmalgrÃ©": 7205,
      "tiÃ¨res": 7206,
      "ĠBob": 7207,
      "ifier": 7208,
      "Ġcla": 7209,
      "Ġportables": 7210,
      "ĠdÃ©faut": 7211,
      "arm": 7212,
      "ĠscÃ©narios": 7213,
      "ĠgÃ©ographique": 7214,
      "Ġvalue": 7215,
      "tivement": 7216,
      "ĠsituÃ©e": 7217,
      "Ġtes": 7218,
      "Ġtempor": 7219,
      "ĠgÃ©nÃ©rÃ©": 7220,
      "Ġserveurs": 7221,
      "ĠboÃ®tes": 7222,
      "ĠaÃ©ri": 7223,
      "ĠprÃ©d": 7224,
      "Ġgener": 7225,
      "installation": 7226,
      "Ġacteurs": 7227,
      "Ġbarres": 7228,
      "interaction": 7229,
      "Ġpousser": 7230,
      "onique": 7231,
      "Ġbouteille": 7232,
      "ðŁ": 7233,
      "Ġprofil": 7234,
      "ĠTous": 7235,
      "ĠindiquÃ©": 7236,
      "Ġcorrect": 7237,
      "Ġ2000": 7238,
      "Ġrestent": 7239,
      "Ġprofesseur": 7240,
      "ĠdÃ©ser": 7241,
      "Ġ<=": 7242,
      "ĠnÃ©gative": 7243,
      "Ġsecondaires": 7244,
      "Ġtransfert": 7245,
      "ĠListe": 7246,
      "ĠCap": 7247,
      "Ġsusceptible": 7248,
      "Ã«l": 7249,
      "Ġleaders": 7250,
      "atrice": 7251,
      "Value": 7252,
      "Ġsinon": 7253,
      "Ġpneu": 7254,
      "ĠRecher": 7255,
      "Ġoriginal": 7256,
      "ĠdÃ©tru": 7257,
      "Ġframe": 7258,
      "Ġendl": 7259,
      "ng": 7260,
      "Ġfoss": 7261,
      "ĠlÃ©gÃ¨re": 7262,
      "Ġvalide": 7263,
      "Ġcontacter": 7264,
      "US": 7265,
      "Ġtenu": 7266,
      "urent": 7267,
      "Ġreli": 7268,
      "Ġsauce": 7269,
      "Ġsommet": 7270,
      "Ġchasse": 7271,
      "Ġ29": 7272,
      "enfant": 7273,
      "ĠfÃ©min": 7274,
      "Ġaccident": 7275,
      "venue": 7276,
      "Ġagric": 7277,
      "}{\\": 7278,
      "Ġtox": 7279,
      "Ġressentir": 7280,
      "identification": 7281,
      "rine": 7282,
      "idÃ©rez": 7283,
      "Ġexclus": 7284,
      "ĠUtilisation": 7285,
      "Ad": 7286,
      "ventions": 7287,
      "Ġgrave": 7288,
      "ctif": 7289,
      "Ġom": 7290,
      "Ġphase": 7291,
      "Ġcrois": 7292,
      "tiens": 7293,
      "ĠconsidÃ©rations": 7294,
      "Ġcommerciales": 7295,
      "inaires": 7296,
      "Ġrendements": 7297,
      "Ġglucides": 7298,
      "ustom": 7299,
      "aimerais": 7300,
      "tilles": 7301,
      "Ġinstrument": 7302,
      "Ġinitiale": 7303,
      "Ġout": 7304,
      "Ġoubli": 7305,
      "ĠSc": 7306,
      "ĠrÃ©volu": 7307,
      "Elle": 7308,
      "ties": 7309,
      "rastructure": 7310,
      "Ġpairs": 7311,
      "ĠeffectuÃ©": 7312,
      "taux": 7313,
      "Ġrue": 7314,
      "rement": 7315,
      "Ġpoils": 7316,
      "Ġos": 7317,
      "Ġdispositifs": 7318,
      "Ġcomprom": 7319,
      "Ġterrit": 7320,
      "Ġroy": 7321,
      "ĠÃ©tudier": 7322,
      "Ġsauveg": 7323,
      "fait": 7324,
      "ĠSan": 7325,
      "avons": 7326,
      "ĠÃ©cran": 7327,
      "Ã©remment": 7328,
      "ĠbiodiversitÃ©": 7329,
      "Ġauquel": 7330,
      "Ġdisons": 7331,
      "ĠÃ©quilibre": 7332,
      "32": 7333,
      "Ġproposition": 7334,
      "ĠmÃ©tri": 7335,
      "Ġfournissent": 7336,
      "Ġtraditionnels": 7337,
      "ĠDiv": 7338,
      "Ġvoyager": 7339,
      "Ã©lÃ©ments": 7340,
      "ĠÃ©nergÃ©tique": 7341,
      "ĠrandonnÃ©e": 7342,
      "but": 7343,
      "gre": 7344,
      "Ġsecteurs": 7345,
      "ignon": 7346,
      "enseignement": 7347,
      "Ġdiminution": 7348,
      "Ġbref": 7349,
      "Ne": 7350,
      "uve": 7351,
      "trans": 7352,
      "Ġpropor": 7353,
      "Ġconstruit": 7354,
      "ĠNommer": 7355,
      "Ġhyper": 7356,
      "Ġcorrespondent": 7357,
      "ignent": 7358,
      "Ġblessures": 7359,
      "ĠdiffÃ©remment": 7360,
      "Ġcibl": 7361,
      "Ġregardez": 7362,
      "ĠarrÃªter": 7363,
      "ĠriviÃ¨re": 7364,
      "quence": 7365,
      "Ġprogression": 7366,
      "oga": 7367,
      "ĠmodifiÃ©": 7368,
      "Ġengage": 7369,
      "ino": 7370,
      "Ġnerv": 7371,
      "jug": 7372,
      "Ġrh": 7373,
      "Ġ48": 7374,
      "ĠrÃ©pÃ©ti": 7375,
      "Ġgrammaire": 7376,
      "Ġartistes": 7377,
      "ĠbÃ¢timent": 7378,
      "ĠbÃ¢timents": 7379,
      "};": 7380,
      "Ġrecyclage": 7381,
      "Com": 7382,
      "Ġprotagoniste": 7383,
      "Ġ^": 7384,
      "ximitÃ©": 7385,
      "Ġdistinctes": 7386,
      "rasser": 7387,
      "Ġinfin": 7388,
      "Ġstation": 7389,
      "Ġadminist": 7390,
      "Ġjournal": 7391,
      "Ġracines": 7392,
      "Ġhautement": 7393,
      "ignant": 7394,
      "ĠVÃ©rifiez": 7395,
      "Ġcalendrier": 7396,
      "anglais": 7397,
      "ingÃ©nierie": 7398,
      "ĠmÃ©canismes": 7399,
      "veill": 7400,
      "ĠAs": 7401,
      "Ġpont": 7402,
      "Ġcenti": 7403,
      "ref": 7404,
      "ĠPD": 7405,
      "ĠdÃ©ter": 7406,
      "Ġdialogue": 7407,
      "Ġbiologiques": 7408,
      "ĠÃ©lectrons": 7409,
      "mique": 7410,
      "ark": 7411,
      "ĠdÃ©sign": 7412,
      "ĠIP": 7413,
      "Ġdomes": 7414,
      "ĠModif": 7415,
      "Ġtextes": 7416,
      "Ġpaires": 7417,
      "ĠNon": 7418,
      "Ġsoup": 7419,
      "rois": 7420,
      "Ã©cart": 7421,
      "heureusement": 7422,
      "ĠproximitÃ©": 7423,
      "ichage": 7424,
      "Ġanalyses": 7425,
      "ĠstabilitÃ©": 7426,
      "Ġvisuellement": 7427,
      "Ġchiffrement": 7428,
      "Ġnet": 7429,
      "Ġrespira": 7430,
      "ĠflexibilitÃ©": 7431,
      "ĠÃ©merg": 7432,
      "ĠnÅĵud": 7433,
      "ĠennuyÃ©": 7434,
      "Ġdomicile": 7435,
      "ĠGrande": 7436,
      "mÃ©es": 7437,
      "wich": 7438,
      "Ġslog": 7439,
      "ĠRempl": 7440,
      "intrigue": 7441,
      "ĠCalculer": 7442,
      "anÃ©ment": 7443,
      "ĠrÃ©serv": 7444,
      "Ġcirconst": 7445,
      "Ġponctu": 7446,
      "lise": 7447,
      "Ġinnovantes": 7448,
      "Ġsubstances": 7449,
      "Ġpom": 7450,
      "Ġaf": 7451,
      "orthograph": 7452,
      "Afrique": 7453,
      "ape": 7454,
      "ĠcompÃ©ti": 7455,
      "ĠtÃ©lÃ©phones": 7456,
      "ĠpauvretÃ©": 7457,
      "Ġpul": 7458,
      "lets": 7459,
      "Ġmour": 7460,
      "osent": 7461,
      "Ġrappel": 7462,
      "Ġspatiale": 7463,
      "Ġ?\"": 7464,
      "Ġprincipe": 7465,
      "Ã©cÃ©d": 7466,
      "approvisionnement": 7467,
      "Ġterres": 7468,
      "Ġsports": 7469,
      "Ġvecteur": 7470,
      "fort": 7471,
      "NN": 7472,
      "Ġtransformation": 7473,
      "Ġsable": 7474,
      "terre": 7475,
      "Ġabsorb": 7476,
      "Cela": 7477,
      "gmentation": 7478,
      "Ġpassant": 7479,
      "ĠcomposÃ©e": 7480,
      "Index": 7481,
      "ĠCode": 7482,
      "tification": 7483,
      "ĠBe": 7484,
      "Ġnoyau": 7485,
      "Ã©cÃ©dents": 7486,
      "Ġcorrespondante": 7487,
      "Ġfiscales": 7488,
      "bons": 7489,
      "txt": 7490,
      "atiser": 7491,
      "ĠdÃ©bar": 7492,
      "total": 7493,
      "ĠCong": 7494,
      "ĠConsidÃ©rez": 7495,
      "ATE": 7496,
      "Ġmaintenance": 7497,
      "Cont": 7498,
      "ĠOÃ¹": 7499,
      "ĠappelÃ©es": 7500,
      "Ġ\"<": 7501,
      "Ġfraction": 7502,
      "Ã©rence": 7503,
      "conde": 7504,
      "Ġenregistrer": 7505,
      "ford": 7506,
      "onacci": 7507,
      "Ġraisonn": 7508,
      "Ġpanneaux": 7509,
      "ĠPer": 7510,
      "Ġ196": 7511,
      "Ġfuturs": 7512,
      "Ġinconn": 7513,
      "Ġhttps": 7514,
      "vie": 7515,
      "Ġachet": 7516,
      "ĠreflÃ¨te": 7517,
      "rid": 7518,
      "agriculture": 7519,
      "Ġmotif": 7520,
      "Ġallem": 7521,
      "Ġimporte": 7522,
      "Ġcourses": 7523,
      "Ġmanipulation": 7524,
      "Ġclaires": 7525,
      "options": 7526,
      "ĠRÃ©Ã©c": 7527,
      "ĠpossÃ©": 7528,
      "exÃ©cu": 7529,
      "ĠvÃ©ritÃ©": 7530,
      "Ġdil": 7531,
      "Ġcitation": 7532,
      "Ġayez": 7533,
      "ĠavancÃ©s": 7534,
      "Ġplacer": 7535,
      "ĠFran": 7536,
      "Ġdescriptions": 7537,
      "js": 7538,
      "ney": 7539,
      "ĠinfluencÃ©": 7540,
      "BC": 7541,
      "Ġinvers": 7542,
      "ĠSÃ©lectionnez": 7543,
      "Ġimagin": 7544,
      "Ġblanche": 7545,
      "ĠPlan": 7546,
      "ĠConver": 7547,
      "Ġpresse": 7548,
      "'.": 7549,
      "augmenter": 7550,
      "Ã©pargne": 7551,
      "astique": 7552,
      "Ġobtient": 7553,
      "ĠExtra": 7554,
      "Ġnoirs": 7555,
      "Ġpel": 7556,
      "ĠvÃ©rification": 7557,
      "Ġinternationale": 7558,
      "Ġplaisir": 7559,
      "Ġconcur": 7560,
      "ĠParce": 7561,
      "Ġtit": 7562,
      "SE": 7563,
      "sage": 7564,
      "Ġdonnent": 7565,
      "ĠAussi": 7566,
      "ĠdÃ©fense": 7567,
      "Ġblocs": 7568,
      "ections": 7569,
      "Ġparoles": 7570,
      "ĠfranÃ§aise": 7571,
      "eue": 7572,
      "ĠcuillÃ¨res": 7573,
      "ĠÃ©loign": 7574,
      "onomie": 7575,
      "ĠET": 7576,
      "ĠÃ©voluÃ©": 7577,
      "cuit": 7578,
      "ĠmÃ©dical": 7579,
      "result": 7580,
      "ĠprocÃ©d": 7581,
      "ĠcÃ©lÃ©b": 7582,
      "28": 7583,
      "ky": 7584,
      "Ġbate": 7585,
      "Ġjo": 7586,
      "objets": 7587,
      "Ġvisiter": 7588,
      "Ġvitesses": 7589,
      "ĠMac": 7590,
      "cipl": 7591,
      "Ã´ne": 7592,
      "assÃ©": 7593,
      "ĠnÅĵuds": 7594,
      "ĠPremiÃ¨re": 7595,
      "Ġlev": 7596,
      "dig": 7597,
      "entification": 7598,
      "Ġimmunitaire": 7599,
      "ĠVis": 7600,
      "Ġ$,": 7601,
      "rimÃ©": 7602,
      "Ġsaveurs": 7603,
      "ĠessayÃ©": 7604,
      "Ġretrouver": 7605,
      "ĠRen": 7606,
      "Ġclub": 7607,
      "Ġcount": 7608,
      "rables": 7609,
      "ingrÃ©": 7610,
      "Ġpropagation": 7611,
      "aÃ§ant": 7612,
      "Ãªtres": 7613,
      "Ġfournisseurs": 7614,
      "Ġgarde": 7615,
      "Tout": 7616,
      "ĠcinÃ©ma": 7617,
      "tention": 7618,
      "Ġtraditionnelle": 7619,
      "Ġfini": 7620,
      "Ġagent": 7621,
      "ĠvÃ©ritable": 7622,
      "ĠgÃ¨nes": 7623,
      "Ġvirtuel": 7624,
      "ĠcÃ©rÃ©b": 7625,
      "Ġenqu": 7626,
      "Ġbrun": 7627,
      "Ġconseil": 7628,
      "Ġalphab": 7629,
      "Ġcommis": 7630,
      "Ġlieux": 7631,
      "Ġmagique": 7632,
      "andwich": 7633,
      "ĠspÃ©cifiquement": 7634,
      "Ġusage": 7635,
      "VID": 7636,
      "ansion": 7637,
      "Ġpun": 7638,
      "Ġfum": 7639,
      "Ġcontro": 7640,
      "Ġjouent": 7641,
      "Ġdividendes": 7642,
      "IF": 7643,
      "imes": 7644,
      "Ġcac": 7645,
      "ĠdÃ©jeuner": 7646,
      "ĠallÃ©": 7647,
      "Ġ@": 7648,
      "ĠdÃ©par": 7649,
      "accÃ©der": 7650,
      "Ġvisuelle": 7651,
      "servation": 7652,
      "Ġparcours": 7653,
      "ĠprioritÃ©": 7654,
      "Ġfavoriser": 7655,
      "Ġrencontre": 7656,
      "usÃ©": 7657,
      "entretien": 7658,
      "oivent": 7659,
      "ocation": 7660,
      "Ġvitamine": 7661,
      "ĠĠĠĠĠĠĠĠĠĠĠĠĠĠĠ": 7662,
      "Ġtravaillant": 7663,
      "Ġindice": 7664,
      "Ac": 7665,
      "ĠdegrÃ©": 7666,
      "Ġlap": 7667,
      "ulÃ©": 7668,
      "Ġbasket": 7669,
      "Ġretourne": 7670,
      "Ġinfluence": 7671,
      "Ġoccident": 7672,
      "Ġensole": 7673,
      "ĠmÃ©decins": 7674,
      "mÃ©diaire": 7675,
      "ĠrÃ´les": 7676,
      "conn": 7677,
      "Ġcheval": 7678,
      "Ã©ricains": 7679,
      "Ġventil": 7680,
      "Ġcommencez": 7681,
      "ĠTom": 7682,
      "ĠFor": 7683,
      "Ġmusculaire": 7684,
      "ĠcÃ©lÃ¨bres": 7685,
      "charge": 7686,
      "ĠrÃ©cip": 7687,
      "ĠEff": 7688,
      "ĠĠĠĠĠĠĠĠĠĠĠĠĠĠ": 7689,
      "Ġfabric": 7690,
      "anne": 7691,
      "Ã©chapp": 7692,
      "Ġauxquels": 7693,
      "Ġdent": 7694,
      "Ġgall": 7695,
      "ĠIA": 7696,
      "Ġcomprenant": 7697,
      "ĠintÃ©rÃªt": 7698,
      "Ġressembl": 7699,
      "tisme": 7700,
      "Ġretourner": 7701,
      "Ġvaccin": 7702,
      "mails": 7703,
      "ĠClassif": 7704,
      "Ġboisson": 7705,
      "ĠadaptÃ©s": 7706,
      "ĠantÃ©cÃ©dents": 7707,
      "lande": 7708,
      "Ġlux": 7709,
      "ĠphÃ©nomÃ¨ne": 7710,
      "ĠÃ©oli": 7711,
      "PE": 7712,
      "Ġisol": 7713,
      "Ġsubstance": 7714,
      "ĠmangÃ©": 7715,
      "Ġbais": 7716,
      "arrÃªter": 7717,
      "Ġentendre": 7718,
      "tations": 7719,
      "Ġvoud": 7720,
      "Ġdure": 7721,
      "Ã©rarch": 7722,
      "Ġaccue": 7723,
      "Ġalternative": 7724,
      "Ġcivil": 7725,
      "Ġsatell": 7726,
      "hip": 7727,
      "ĠrÃ©els": 7728,
      "Ġhash": 7729,
      "Ġfortement": 7730,
      "Ġverbes": 7731,
      "Ġ\"\"": 7732,
      "Ġcaptiv": 7733,
      "drait": 7734,
      "times": 7735,
      "ĠÃ®": 7736,
      "Ġboule": 7737,
      "Ġnormalement": 7738,
      "Ġprovoque": 7739,
      "culez": 7740,
      "Ġtissus": 7741,
      ")/": 7742,
      "ek": 7743,
      "Ġdettes": 7744,
      "Ġproduite": 7745,
      "sin": 7746,
      "ings": 7747,
      "ĠGre": 7748,
      "avec": 7749,
      "pg": 7750,
      "bit": 7751,
      "ĠBY": 7752,
      "Ġancien": 7753,
      "ĠnuclÃ©aires": 7754,
      "Ġjuridiques": 7755,
      "usses": 7756,
      "crire": 7757,
      "Ġinstitu": 7758,
      "Ġattributs": 7759,
      "Ġdoigts": 7760,
      "romp": 7761,
      "Ġprolong": 7762,
      "Ġboursier": 7763,
      "tiez": 7764,
      "enser": 7765,
      "Ġressembler": 7766,
      "Ġportes": 7767,
      "ĠnÃ©cessitÃ©": 7768,
      "ĠchargÃ©": 7769,
      "Ġbancaire": 7770,
      "Ġfossiles": 7771,
      "Ġplant": 7772,
      "ĠnommÃ©e": 7773,
      "Ġcontradic": 7774,
      "ĠfrÃ¨re": 7775,
      "ĠmolÃ©c": 7776,
      "olique": 7777,
      "Ġbelle": 7778,
      "Ġcroient": 7779,
      "ĠcomposÃ©s": 7780,
      "Ġprenantes": 7781,
      "monie": 7782,
      "Ã©nieur": 7783,
      "quemment": 7784,
      "Ġgon": 7785,
      "Ġcapturer": 7786,
      "olf": 7787,
      "Ġ##": 7788,
      "Ġpositives": 7789,
      "Ġvoyages": 7790,
      "1010": 7791,
      "ĠnumÃ©ros": 7792,
      "Ġit": 7793,
      "Ġuse": 7794,
      "omac": 7795,
      "ĠAfrique": 7796,
      "Ġnuances": 7797,
      "ĠrÃ©compenses": 7798,
      "produ": 7799,
      "Ġital": 7800,
      "Ġinsectes": 7801,
      "Ġaffir": 7802,
      "Ġvisuels": 7803,
      "Ġ>=": 7804,
      "ĠrÃ©pondent": 7805,
      "number": 7806,
      "Ġbain": 7807,
      "missions": 7808,
      "Ġpause": 7809,
      "Ġbrill": 7810,
      "Ġcorrespondantes": 7811,
      "ĠOuvrez": 7812,
      "Ġvieux": 7813,
      "Ġsauf": 7814,
      "Ġmiro": 7815,
      "var": 7816,
      "Ġfe": 7817,
      "Ġram": 7818,
      "iversaire": 7819,
      "Ġsecret": 7820,
      "ĠProposez": 7821,
      "ison": 7822,
      "ational": 7823,
      "Ġpix": 7824,
      "Ġmariage": 7825,
      "Se": 7826,
      "ĠthÃ©ories": 7827,
      "Ġtweet": 7828,
      "ĠTwitter": 7829,
      "ĠgÃ©nÃ©tiques": 7830,
      "ĠprÃ©visions": 7831,
      "inv": 7832,
      "ĠHe": 7833,
      "ĠfrÃ©quemment": 7834,
      "pas": 7835,
      "parez": 7836,
      "Ġsavent": 7837,
      "Ġblan": 7838,
      "ĠdÃ©penser": 7839,
      "atÃ©g": 7840,
      "auto": 7841,
      "Ġgouvernementales": 7842,
      "ĠdÃ©mographiques": 7843,
      "Array": 7844,
      "ĠmystÃ©ri": 7845,
      "Ġperception": 7846,
      "exactitude": 7847,
      "bas": 7848,
      "Ġrappro": 7849,
      "Ġexige": 7850,
      "Ġfiltre": 7851,
      "Ġcherchez": 7852,
      "Ġexperts": 7853,
      "view": 7854,
      "ĠFond": 7855,
      "Ġsusp": 7856,
      "cap": 7857,
      "quis": 7858,
      "Ġjava": 7859,
      "Ġboug": 7860,
      "Ġrevenir": 7861,
      "ĠassociÃ©e": 7862,
      "Ġlutter": 7863,
      "Ġtransmet": 7864,
      "Ġendorm": 7865,
      "df": 7866,
      "Ġconnues": 7867,
      "Ġpourrais": 7868,
      "tateurs": 7869,
      "umn": 7870,
      "Ġbonheur": 7871,
      "ĠÃ©trange": 7872,
      "Ġfore": 7873,
      "urne": 7874,
      "Åĵurs": 7875,
      "Parce": 7876,
      "LL": 7877,
      "Ġsections": 7878,
      "Ġsimuler": 7879,
      "Ġself": 7880,
      "ĠDemandez": 7881,
      "empÃª": 7882,
      "Ġenseignants": 7883,
      "ĠhiÃ©rarch": 7884,
      ".\")": 7885,
      "ĠDi": 7886,
      "hypoth": 7887,
      "Ġbom": 7888,
      "ĠrÃ©actions": 7889,
      "Ġsolaires": 7890,
      "Ġgalax": 7891,
      "Num": 7892,
      "sort": 7893,
      "ession": 7894,
      "roÃ¯": 7895,
      "Ġpaysage": 7896,
      "ĠcaractÃ©ristique": 7897,
      "Ġpond": 7898,
      "ĠdÃ©bit": 7899,
      "Ġmenaces": 7900,
      "ltk": 7901,
      "accep": 7902,
      "ĠINT": 7903,
      "Ġhand": 7904,
      "Ġalli": 7905,
      "Ġstocke": 7906,
      "ĠdÃ©terminÃ©": 7907,
      "Ġchercheurs": 7908,
      "ĠrÃªve": 7909,
      "ĠrÃ©cupÃ©ration": 7910,
      "Ġvirg": 7911,
      "Ġatom": 7912,
      "ĠassociÃ©es": 7913,
      "ĠSinon": 7914,
      "join": 7915,
      "initi": 7916,
      "ym": 7917,
      "Ġsouffle": 7918,
      "ĠCo": 7919,
      "php": 7920,
      "low": 7921,
      "chement": 7922,
      "ussions": 7923,
      "ington": 7924,
      "Ġroi": 7925,
      "âĢĭ": 7926,
      "Ġ180": 7927,
      "Ġpubliques": 7928,
      "Ġfusion": 7929,
      "ĠdÃ©v": 7930,
      "Ġaspect": 7931,
      "Ġdue": 7932,
      ")^": 7933,
      "Ã´p": 7934,
      "Ġbonbons": 7935,
      "Ġfixe": 7936,
      "NLP": 7937,
      "Ġgains": 7938,
      "Ġcentres": 7939,
      "oÃ¯": 7940,
      "resser": 7941,
      "oleil": 7942,
      "agnol": 7943,
      "ĠdÃ©montrer": 7944,
      "TeX": 7945,
      "innovation": 7946,
      "utant": 7947,
      "ĠdÃ©tendre": 7948,
      "Ġsoigneusement": 7949,
      "Ġ31": 7950,
      "olet": 7951,
      "ĠdÃ©roul": 7952,
      "enci": 7953,
      "Ġaudi": 7954,
      "ĠSmith": 7955,
      "ends": 7956,
      "universitÃ©": 7957,
      "fr": 7958,
      "Ġimportance": 7959,
      "Ġinstaller": 7960,
      "ĠmÃ©canique": 7961,
      "ĠaperÃ§u": 7962,
      "anvier": 7963,
      "Ġlaisse": 7964,
      "Ġconfortable": 7965,
      "ĠÃ©quitable": 7966,
      "Ġauth": 7967,
      "Ġmodification": 7968,
      "Ġguit": 7969,
      "Ġsignificatives": 7970,
      "ĠmammifÃ¨res": 7971,
      "ĠCelsius": 7972,
      "Ġboutons": 7973,
      "ĠimpliquÃ©s": 7974,
      "Ġquartier": 7975,
      "tate": 7976,
      "ĠvÃ©gÃ©tal": 7977,
      "Ġprotocoles": 7978,
      "dy": 7979,
      "Ġproc": 7980,
      "Ġincorre": 7981,
      "ĠautorisÃ©": 7982,
      "Ġcharger": 7983,
      "ĠbrÃ»l": 7984,
      "35": 7985,
      "ĠinquiÃ©": 7986,
      "ĠÃ©vo": 7987,
      "Ġ2019": 7988,
      "ĠresponsabilitÃ©s": 7989,
      "Ġbataille": 7990,
      "Ġcad": 7991,
      "onnÃ©es": 7992,
      "ĠOpen": 7993,
      "Ġfatigue": 7994,
      "ĠtolÃ©rance": 7995,
      "Ġcirconstances": 7996,
      "frac": 7997,
      "Ġnette": 7998,
      "ĠMes": 7999,
      "ĠÃ©cologiques": 8000,
      "Ġenne": 8001,
      "Ġimpressionn": 8002,
      "Ġralenti": 8003,
      "va": 8004,
      "ĠServ": 8005,
      "individu": 8006,
      "90": 8007,
      "ME": 8008,
      "Ġdor": 8009,
      "onge": 8010,
      "Ġindiquant": 8011,
      "ĠSeconde": 8012,
      "ĠrÃ©ussie": 8013,
      "ĠprÃ©cÃ©dente": 8014,
      "xml": 8015,
      "onie": 8016,
      "ouest": 8017,
      "Ã»r": 8018,
      "Ġadapter": 8019,
      "ĠcausÃ©e": 8020,
      "ĠcohÃ©rente": 8021,
      "ueurs": 8022,
      "Ġenfin": 8023,
      "idi": 8024,
      "place": 8025,
      "ĠconsidÃ©rÃ©es": 8026,
      "Ġdollar": 8027,
      "ĠinvitÃ©s": 8028,
      "ĠMath": 8029,
      "ĠprÃ©sentent": 8030,
      "Ġrayons": 8031,
      "Ġlanc": 8032,
      "entrer": 8033,
      "Ġmultiplication": 8034,
      "ĠconstituÃ©": 8035,
      "hi": 8036,
      "Ġchute": 8037,
      "accessi": 8038,
      "ĠFib": 8039,
      "yer": 8040,
      "Ġdanse": 8041,
      "clusion": 8042,
      "Ġsocio": 8043,
      "ruption": 8044,
      "oux": 8045,
      "Ġparole": 8046,
      "find": 8047,
      "Ġconnais": 8048,
      "Ã©mas": 8049,
      "ĠlÃ©ger": 8050,
      "Ġparticuliers": 8051,
      "raine": 8052,
      "ĠÃ©change": 8053,
      "Ġtaxe": 8054,
      "ĠtÃ©mo": 8055,
      "ĠpoÃªle": 8056,
      "isser": 8057,
      "Ġcommerciaux": 8058,
      "ness": 8059,
      "Ġmilitaire": 8060,
      "Ġtechnologique": 8061,
      "Ġrespectivement": 8062,
      "mÃ©s": 8063,
      "peau": 8064,
      "oncer": 8065,
      "ril": 8066,
      "Ġmontrent": 8067,
      "Ġessentielles": 8068,
      "bin": 8069,
      "illet": 8070,
      "hydrogÃ¨ne": 8071,
      "Ġconcentre": 8072,
      "Ġpierre": 8073,
      "ĠcÃ´te": 8074,
      "ĠrÃ©frig": 8075,
      "ĠBeaucoup": 8076,
      "Ġvou": 8077,
      "actif": 8078,
      "Ġanalog": 8079,
      "oise": 8080,
      "----------": 8081,
      "Ġcentral": 8082,
      "Date": 8083,
      "Ġrelax": 8084,
      "ĠbÃ©nÃ©ficier": 8085,
      "ĠprÃ©fÃ©rÃ©": 8086,
      "Est": 8087,
      "Ġpoign": 8088,
      "Ġrecev": 8089,
      "ĠPIB": 8090,
      "architecture": 8091,
      "ĠdÃ©lic": 8092,
      "Ġvitamines": 8093,
      "ctez": 8094,
      "Ġyoga": 8095,
      "ĠOff": 8096,
      "></": 8097,
      "af": 8098,
      "ĠcarrÃ©e": 8099,
      "Ã©rateur": 8100,
      "Ġcliquez": 8101,
      "olive": 8102,
      "influence": 8103,
      "ouvelle": 8104,
      "avait": 8105,
      "Ġclav": 8106,
      "Ġinfection": 8107,
      "ĠcalculÃ©": 8108,
      "ĠdÃ©cim": 8109,
      "net": 8110,
      "ĠsÃ¨che": 8111,
      "usions": 8112,
      "Ã¢tre": 8113,
      "Ġblague": 8114,
      "ĠCOVID": 8115,
      "Ġtransition": 8116,
      "ĠSes": 8117,
      "Ġvisible": 8118,
      "Ġfmt": 8119,
      "ĠÃ©tats": 8120,
      "Ġvoulons": 8121,
      "Ġsept": 8122,
      "Ġbro": 8123,
      "ĠcrÃ©ature": 8124,
      "ĠÃªtres": 8125,
      "ĠmÃ©langer": 8126,
      "ajout": 8127,
      "Ġdispositif": 8128,
      "gen": 8129,
      "hiver": 8130,
      "ĠdÃ©veloppe": 8131,
      "ĠstÃ©": 8132,
      "Ġseuls": 8133,
      "ĠMont": 8134,
      "ĠformÃ©": 8135,
      "Ġ['": 8136,
      "Ġhtml": 8137,
      "Ġframework": 8138,
      "hydra": 8139,
      "Ġintense": 8140,
      "55": 8141,
      "Ġdistances": 8142,
      "Ġtraditionnel": 8143,
      "CO": 8144,
      "ĠdÃ©pensÃ©": 8145,
      "ficie": 8146,
      "ĠÃ©met": 8147,
      "ĠbÃ©nÃ©fique": 8148,
      "scur": 8149,
      "Ġstable": 8150,
      "Ġcouple": 8151,
      "ĠCour": 8152,
      "ĠSans": 8153,
      "ĠED": 8154,
      "Ġpratiquer": 8155,
      "Ġmascul": 8156,
      "Ġshell": 8157,
      "ĠsupervisÃ©": 8158,
      "Ġdevra": 8159,
      "Ã©taire": 8160,
      "iler": 8161,
      "estre": 8162,
      "\"),": 8163,
      "ake": 8164,
      "elez": 8165,
      "ĠAmazon": 8166,
      "Ġpouvaient": 8167,
      "ĠmodÃ©lisation": 8168,
      "ED": 8169,
      "orde": 8170,
      "Ġrendent": 8171,
      "ĠprocÃ©dures": 8172,
      "Ġdon": 8173,
      "Ġattendre": 8174,
      "Ġroutes": 8175,
      "espoir": 8176,
      "Ġintrodu": 8177,
      "ligne": 8178,
      "ĠMars": 8179,
      "Ġcontribue": 8180,
      "UT": 8181,
      "tionnaires": 8182,
      "dict": 8183,
      "ĠdiplÃ´me": 8184,
      "ĠsÃ©curisÃ©e": 8185,
      "Ġquotidien": 8186,
      "lammation": 8187,
      "arrive": 8188,
      "ker": 8189,
      "Ġrub": 8190,
      "ĠMat": 8191,
      "Ã©tape": 8192,
      "Ã©taient": 8193,
      "Ġprofessionnelles": 8194,
      "ĠprÃ©sents": 8195,
      "uÃ©s": 8196,
      "erse": 8197,
      "quad": 8198,
      "Ġaigu": 8199,
      "ĠarrivÃ©": 8200,
      "ĠâĢ¢": 8201,
      "Ġinstruments": 8202,
      "Ġveillant": 8203,
      "ĠprÃ©cieux": 8204,
      "document": 8205,
      "email": 8206,
      "ish": 8207,
      "Ġbris": 8208,
      "Ġmultiple": 8209,
      "Ġessai": 8210,
      "Ġcomparant": 8211,
      "((": 8212,
      "ĠunitÃ©": 8213,
      "phÃ¨re": 8214,
      "iki": 8215,
      "ĠminÃ©raux": 8216,
      "Ġspor": 8217,
      "ĠdÃ©pendance": 8218,
      "Ġplt": 8219,
      "Ġdiab": 8220,
      "phones": 8221,
      "anciation": 8222,
      "ĠprofondÃ©ment": 8223,
      "Ġdoucement": 8224,
      "ĠÃ©quival": 8225,
      "armÃ©e": 8226,
      "actifs": 8227,
      "ueil": 8228,
      "Ġcherche": 8229,
      "Ġangle": 8230,
      "Ġouverte": 8231,
      "Ġbiscuits": 8232,
      "ville": 8233,
      "ĠLune": 8234,
      "ĠartÃ©ri": 8235,
      "Ġrecommandation": 8236,
      "ondu": 8237,
      "Ġrectangle": 8238,
      "oyen": 8239,
      "iÃ¨mement": 8240,
      "conne": 8241,
      "acter": 8242,
      "Ġcommercial": 8243,
      "St": 8244,
      "ĠBan": 8245,
      "Ġsentez": 8246,
      "ĠReddit": 8247,
      "\\\\": 8248,
      "ĠLaTeX": 8249,
      "Ġcontributions": 8250,
      "Ġcapitale": 8251,
      "Ġclimatiques": 8252,
      "historique": 8253,
      "ĠMus": 8254,
      "Ġmarcher": 8255,
      "Ġmettent": 8256,
      "ĠtÃ©lÃ©charger": 8257,
      "Ġsandwich": 8258,
      "ester": 8259,
      "Ġparall": 8260,
      "ĠVal": 8261,
      "ĠsoirÃ©e": 8262,
      "Ġconvivi": 8263,
      "Ġoccup": 8264,
      "Ġfournie": 8265,
      "Ġimmer": 8266,
      "ĠimpliquÃ©es": 8267,
      "AP": 8268,
      "ĠLond": 8269,
      "Ġfilles": 8270,
      "Ġnumber": 8271,
      "Ġexplic": 8272,
      "Ġcontradiction": 8273,
      "taient": 8274,
      "mots": 8275,
      "ios": 8276,
      "Ġordonn": 8277,
      "ĠaidÃ©": 8278,
      "ĠPC": 8279,
      "resses": 8280,
      "Ġ||": 8281,
      "Ã©curitÃ©": 8282,
      "Ġara": 8283,
      "chat": 8284,
      "ategor": 8285,
      "Ġcentaines": 8286,
      "pol": 8287,
      "Ġsolde": 8288,
      "ĠcoÃ»tent": 8289,
      "Ġnaturellement": 8290,
      "(),": 8291,
      "raire": 8292,
      "Ġvib": 8293,
      "ĠprÃ©vu": 8294,
      "Ġsoudaine": 8295,
      "Op": 8296,
      "denti": 8297,
      "Ġprosp": 8298,
      "Ġviens": 8299,
      "Ġratio": 8300,
      "70": 8301,
      "uÃ©e": 8302,
      "ouvrez": 8303,
      "Ġsys": 8304,
      "Ġinterag": 8305,
      "Ġcanaux": 8306,
      "ĠÃ©ventail": 8307,
      "duction": 8308,
      "Ġdim": 8309,
      "Ġflo": 8310,
      "Ġtomates": 8311,
      "isations": 8312,
      "uscule": 8313,
      "ĠÃ©crite": 8314,
      "------------": 8315,
      "atrix": 8316,
      "estes": 8317,
      "Ġtaches": 8318,
      "effectuer": 8319,
      "Ġpauses": 8320,
      "Ġsouvenirs": 8321,
      "atu": 8322,
      "Ġdonnera": 8323,
      "Ġdisques": 8324,
      "Ġdirecte": 8325,
      "box": 8326,
      "Ġtaxes": 8327,
      "ĠfiabilitÃ©": 8328,
      "Ã¨tent": 8329,
      "ĠÃ©volution": 8330,
      "ĠrÃ©servoir": 8331,
      "OR": 8332,
      "Ġballes": 8333,
      "Votre": 8334,
      "Ġpile": 8335,
      "Ġbleue": 8336,
      "ĠÃ©clairÃ©es": 8337,
      "Ġterrestre": 8338,
      "haus": 8339,
      "ias": 8340,
      "tom": 8341,
      "icitÃ©": 8342,
      "trage": 8343,
      "truction": 8344,
      "Ġobtenons": 8345,
      "Ġrayonnement": 8346,
      "Ġmac": 8347,
      "Ġquit": 8348,
      "Ġvoies": 8349,
      "aliments": 8350,
      "MS": 8351,
      "ĠdÃ©finie": 8352,
      "uyer": 8353,
      "Apple": 8354,
      "Ġimprim": 8355,
      "Ġ42": 8356,
      "Ġpositions": 8357,
      "ĠgÃ©omÃ©tri": 8358,
      "ĠartÃ©rielle": 8359,
      "Ġcroire": 8360,
      "Ġbreak": 8361,
      "Node": 8362,
      "ĠâĤ¬": 8363,
      "Code": 8364,
      "ĠarrÃª": 8365,
      "Ġspatial": 8366,
      "Ġpartis": 8367,
      "Ġnoct": 8368,
      "Ġfacture": 8369,
      "Ġsciences": 8370,
      "ĠdÃ©test": 8371,
      "Ġplain": 8372,
      "Ġgarantit": 8373,
      "oureuse": 8374,
      "Pl": 8375,
      "Ġmeu": 8376,
      "Ġcompl": 8377,
      "Ġrequis": 8378,
      "human": 8379,
      "enregistre": 8380,
      "har": 8381,
      "Ġvoyag": 8382,
      "cidents": 8383,
      "Ġgraisse": 8384,
      "ĠprÃ©dictions": 8385,
      "Ġheureuse": 8386,
      "ĠdÃ©termination": 8387,
      "Ġstruct": 8388,
      "Ġexacte": 8389,
      "ĠDÃ©crivez": 8390,
      "ĠSoleil": 8391,
      "Ġtransporter": 8392,
      "math": 8393,
      "Ġmilitaires": 8394,
      "Ġrequire": 8395,
      "Ġviolence": 8396,
      "ĠData": 8397,
      "osÃ©e": 8398,
      "Ġgluten": 8399,
      "Ġfortes": 8400,
      "ĠGu": 8401,
      "Ġ};": 8402,
      "Ġcube": 8403,
      "Ġstade": 8404,
      "Ġadopter": 8405,
      "Ġvocale": 8406,
      "ja": 8407,
      "Ġlav": 8408,
      "Ġbra": 8409,
      "itudes": 8410,
      "ĠÃ©quip": 8411,
      "Ġoccu": 8412,
      "Ġcontradictoires": 8413,
      "Ġquan": 8414,
      "Ġcinqu": 8415,
      "Ġaimer": 8416,
      "ĠfidÃ©litÃ©": 8417,
      "Ġcoupe": 8418,
      "ĠprÃ©tra": 8419,
      "Ġformules": 8420,
      "Ġangles": 8421,
      "ĠpubliÃ©": 8422,
      "Ġath": 8423,
      "Ġtrouble": 8424,
      "ily": 8425,
      "allÃ©": 8426,
      "Ġenvie": 8427,
      "ĠsÃ©ries": 8428,
      "ĠpossibilitÃ©s": 8429,
      "Ġexcessive": 8430,
      "Ġpoit": 8431,
      "Ġlongueurs": 8432,
      "ĠidÃ©al": 8433,
      "Ġautonomes": 8434,
      "Ġressentez": 8435,
      "Ġfiscal": 8436,
      ".,": 8437,
      "Ġare": 8438,
      "ated": 8439,
      "Ġcoups": 8440,
      "outils": 8441,
      "Ġvaisseau": 8442,
      "Ġnltk": 8443,
      "Ġinteragir": 8444,
      "Ġgarn": 8445,
      "Ġconcise": 8446,
      "aigre": 8447,
      "rÃ´le": 8448,
      "raction": 8449,
      "aies": 8450,
      "Ġsusc": 8451,
      "Ġfrappe": 8452,
      "Ġphilosophie": 8453,
      "aques": 8454,
      "Ġcous": 8455,
      "demment": 8456,
      "Ġcouverte": 8457,
      "ĠNotre": 8458,
      "ĠAND": 8459,
      "Ġagir": 8460,
      "ĠrÃ©alisations": 8461,
      "ĠShell": 8462,
      "Ġimpliquant": 8463,
      "examiner": 8464,
      "zy": 8465,
      "jection": 8466,
      "Ġ600": 8467,
      "ĠdivisÃ©": 8468,
      "Ġmauvaises": 8469,
      "Ġconvainc": 8470,
      "26": 8471,
      "umez": 8472,
      "Ġur": 8473,
      "clam": 8474,
      "Ġjanvier": 8475,
      "Ġaver": 8476,
      "Ġlongs": 8477,
      "ĠÃ©crira": 8478,
      "Ġcollabor": 8479,
      "Ġillustrer": 8480,
      "ĠRÃ©Ã©cris": 8481,
      "ĠSci": 8482,
      "Ġdisposition": 8483,
      "riter": 8484,
      "ĠadÃ©qu": 8485,
      "Ġinfections": 8486,
      "ĠentraÃ®ne": 8487,
      "Ġremarqu": 8488,
      "util": 8489,
      "talement": 8490,
      "Ġperd": 8491,
      "Ġvig": 8492,
      "Ġrelever": 8493,
      "plus": 8494,
      "Ġverte": 8495,
      "Ġapparence": 8496,
      "Ġ250": 8497,
      "ĠCongrÃ¨s": 8498,
      "ĠEDIT": 8499,
      "tein": 8500,
      "exposition": 8501,
      "ĠrÃ©putation": 8502,
      "aises": 8503,
      "ols": 8504,
      "Ġfaune": 8505,
      "Ġdevait": 8506,
      "Ġactuels": 8507,
      "Ġcontent": 8508,
      "Ġmesu": 8509,
      "imposition": 8510,
      "Ġautomobile": 8511,
      "ĠÃ©lÃ©g": 8512,
      "ĠFranc": 8513,
      "ĠaccÃ©l": 8514,
      "spe": 8515,
      "cembre": 8516,
      "Ġamour": 8517,
      "fiction": 8518,
      "Ġremise": 8519,
      "olesc": 8520,
      "Ġtribun": 8521,
      "fer": 8522,
      "Ã¨vres": 8523,
      "Ġverts": 8524,
      "otes": 8525,
      "chec": 8526,
      "orez": 8527,
      "Ã©tr": 8528,
      "ung": 8529,
      "Ġsecondaire": 8530,
      "Ġsoulager": 8531,
      "\"],": 8532,
      "Ġmillion": 8533,
      "ĠocÃ©ans": 8534,
      "bio": 8535,
      "accÃ©": 8536,
      "Ġvisuel": 8537,
      "ĠLinux": 8538,
      "Ġremboursement": 8539,
      "Table": 8540,
      "uil": 8541,
      "Ġhoraires": 8542,
      "Ġexistants": 8543,
      "Ġpassion": 8544,
      "texte": 8545,
      "ĠremarquÃ©": 8546,
      "Ġnp": 8547,
      "ĠgoÃ»": 8548,
      "Ġjet": 8549,
      "investir": 8550,
      "ender": 8551,
      "token": 8552,
      "ĠTex": 8553,
      "ami": 8554,
      "assword": 8555,
      "Ġachat": 8556,
      "ĠGrand": 8557,
      "orph": 8558,
      "Ġplong": 8559,
      "Ġavenir": 8560,
      "ĠforÃªts": 8561,
      "idemment": 8562,
      "verb": 8563,
      "Ġong": 8564,
      "Ġlist": 8565,
      "Ġpur": 8566,
      "ĠcomplÃ©ment": 8567,
      "ensor": 8568,
      "ĠdÃ©clarations": 8569,
      "ĠperÃ§": 8570,
      "Ġpuissiez": 8571,
      "Ġbiologique": 8572,
      "accum": 8573,
      "Ġsalaires": 8574,
      "Ġpair": 8575,
      "inclure": 8576,
      "Ġvain": 8577,
      "ĠMettre": 8578,
      "ĠdÃ©duits": 8579,
      "ĠgÃ©nÃ©rations": 8580,
      "Ġautomatiser": 8581,
      "CD": 8582,
      "ST": 8583,
      "iteur": 8584,
      "atteindre": 8585,
      "Ġguider": 8586,
      "ĠAmÃ©li": 8587,
      "Ġvillage": 8588,
      "ĠRet": 8589,
      "endie": 8590,
      "Ġastuces": 8591,
      "Ġpire": 8592,
      "ĠÃĬ": 8593,
      "ĠExpl": 8594,
      "Ġmanquant": 8595,
      "Ġemail": 8596,
      "ĠLeur": 8597,
      "ĠAb": 8598,
      "Ġcontrainte": 8599,
      "Ã¯s": 8600,
      "Ġinteractifs": 8601,
      "Ġlancement": 8602,
      "terne": 8603,
      "Ġconfusion": 8604,
      "ĠentraÃ®nant": 8605,
      "Ġconnexions": 8606,
      "Ġvan": 8607,
      "Ġchers": 8608,
      "Ġindicateurs": 8609,
      "ĠrÃ©tro": 8610,
      "Ġmenace": 8611,
      "syn": 8612,
      "chron": 8613,
      "ĠWord": 8614,
      "Ġcontinent": 8615,
      "ĠrÃ©alisation": 8616,
      "izer": 8617,
      "Ġappartient": 8618,
      "ku": 8619,
      "oad": 8620,
      "ĠextrÃ©": 8621,
      "Ġintelligents": 8622,
      "ĠthÃ©rapie": 8623,
      "acifique": 8624,
      "ĠorganisÃ©": 8625,
      "rices": 8626,
      "tembre": 8627,
      "ĠschÃ©mas": 8628,
      "05": 8629,
      "cir": 8630,
      "Ġpd": 8631,
      "Ġvagues": 8632,
      "Ġpoivre": 8633,
      "Ġ65": 8634,
      "Ġprior": 8635,
      "Ġfamilles": 8636,
      "Ġvarie": 8637,
      "Ġaffectent": 8638,
      "Ġaborder": 8639,
      "ĠÃ©tiquettes": 8640,
      "ĠFournissez": 8641,
      "SA": 8642,
      "estations": 8643,
      "sentence": 8644,
      "Ġvertic": 8645,
      "Ġpotentielle": 8646,
      "ĠbÃ©nÃ©fici": 8647,
      "ĠalphabÃ©tique": 8648,
      "bum": 8649,
      "Ġtravaux": 8650,
      "Ġremarquer": 8651,
      "Er": 8652,
      "Ġdonnant": 8653,
      "Ġrestant": 8654,
      "ĠadaptÃ©es": 8655,
      "ĠconÃ§ue": 8656,
      "Ġperspective": 8657,
      "Ġinutiles": 8658,
      "Ġpy": 8659,
      "ĠTable": 8660,
      "Ġ34": 8661,
      "Ġatteintes": 8662,
      "pace": 8663,
      "ĠachÃ¨te": 8664,
      "Ġcontribution": 8665,
      "ĠdÃ©clarÃ©": 8666,
      "sol": 8667,
      "tor": 8668,
      "istiques": 8669,
      "ĠWorld": 8670,
      "ĠrÃ©guliers": 8671,
      "ĠdÃ©chiff": 8672,
      "arti": 8673,
      "Ġgraisses": 8674,
      "Ġcab": 8675,
      "Ġmand": 8676,
      "ulti": 8677,
      "ĠMc": 8678,
      "ĠFl": 8679,
      "Ġsentence": 8680,
      "Ġtransparence": 8681,
      "Ġconscient": 8682,
      "ĠCorÃ©e": 8683,
      "Ġdiscrimination": 8684,
      "Ġkey": 8685,
      "Ġmurs": 8686,
      "ĠcrÃ©ent": 8687,
      "Ġprouver": 8688,
      "ĠapparaÃ®t": 8689,
      "Ġvendus": 8690,
      "ĠAnalysez": 8691,
      "heit": 8692,
      "Ġmerve": 8693,
      "Ġpoitrine": 8694,
      "learn": 8695,
      "auc": 8696,
      "algorithmes": 8697,
      "activitÃ©s": 8698,
      "ĠdÃ®ner": 8699,
      "Ġplaque": 8700,
      "entiers": 8701,
      "Ġincluant": 8702,
      "Ã©pendance": 8703,
      "Ġlinguistique": 8704,
      "load": 8705,
      "Ġmanquantes": 8706,
      "Ġdf": 8707,
      "Ġ!\"": 8708,
      "ĠPlacez": 8709,
      "habitude": 8710,
      "Ġfaudrait": 8711,
      "Ġauront": 8712,
      "Ġdirectives": 8713,
      "ĠprÃ©cÃ©demment": 8714,
      "Ġgrec": 8715,
      "BA": 8716,
      "tante": 8717,
      "espÃ¨ce": 8718,
      "ĠcontrÃ´l": 8719,
      "occu": 8720,
      "Ġvinaigre": 8721,
      "ĠillÃ©gal": 8722,
      "Ġaddition": 8723,
      "Ġinfluenc": 8724,
      "Ġneutre": 8725,
      "Ġachetez": 8726,
      "ĠprocÃ©dure": 8727,
      "DA": 8728,
      "Ġcath": 8729,
      "Ġtranche": 8730,
      "Ġinatten": 8731,
      "ĠpopularitÃ©": 8732,
      "accessibilitÃ©": 8733,
      "bf": 8734,
      "ĠrÃ©elles": 8735,
      "Ġdonnez": 8736,
      "administ": 8737,
      "ĠfÃ©dÃ©ral": 8738,
      "ĠprÃ©server": 8739,
      "Ġboucles": 8740,
      "Ġslogan": 8741,
      "Ġretenir": 8742,
      "ciation": 8743,
      "Tube": 8744,
      "mm": 8745,
      "Ġste": 8746,
      "Ġsoule": 8747,
      "Ġmyth": 8748,
      "renheit": 8749,
      "istants": 8750,
      "ĠspÃ©ciales": 8751,
      "Ġgenres": 8752,
      "extraction": 8753,
      "Ġfloat": 8754,
      "Ġparlez": 8755,
      "Ġpassez": 8756,
      "Ġtrom": 8757,
      "expri": 8758,
      "ĠentiÃ¨re": 8759,
      "ĠhypothÃ©caire": 8760,
      "Ġleader": 8761,
      "Ġpeuple": 8762,
      "argument": 8763,
      "ĠaffichÃ©": 8764,
      "Ġdistincts": 8765,
      "Ġsyllab": 8766,
      "authentification": 8767,
      "alisations": 8768,
      "Ġjustif": 8769,
      "Ġengagement": 8770,
      "ĠÃ©quilibrÃ©e": 8771,
      "icateur": 8772,
      "Ġcombiner": 8773,
      "ĠprÃ©sentÃ©": 8774,
      "Ġsauter": 8775,
      "Ġinternational": 8776,
      "Ġtoken": 8777,
      "pu": 8778,
      "Ġimprimer": 8779,
      "Ġprivil": 8780,
      "Ġcoefficient": 8781,
      "ĠCrÃ©e": 8782,
      "empathie": 8783,
      "Ã¨gre": 8784,
      "Ġcourage": 8785,
      "uns": 8786,
      "array": 8787,
      "agÃ©s": 8788,
      "Ġhorm": 8789,
      "Ġappeler": 8790,
      "fit": 8791,
      "Ġversions": 8792,
      "ĠintÃ©ressÃ©": 8793,
      "ĠAngel": 8794,
      "lette": 8795,
      "Ġcodage": 8796,
      "Ġauto": 8797,
      "ĠInc": 8798,
      "Ġmontrant": 8799,
      "ĠintÃ©ressante": 8800,
      "approche": 8801,
      "anguage": 8802,
      "ĠReg": 8803,
      "Ġfrot": 8804,
      "ĠcachÃ©": 8805,
      "Ġgran": 8806,
      "ĠmarquÃ©": 8807,
      "Ġcapture": 8808,
      "Ġreposer": 8809,
      "Ġexamen": 8810,
      "Ġaccepter": 8811,
      "ĠchrÃ©": 8812,
      "Ġinspi": 8813,
      "ĠMalgrÃ©": 8814,
      "isco": 8815,
      "Ġexistent": 8816,
      "Ġsaines": 8817,
      "artis": 8818,
      "ĠprÃ©ten": 8819,
      "UniversitÃ©": 8820,
      "Ġmerci": 8821,
      "Ġcorrespondants": 8822,
      "Ã©quipement": 8823,
      "Ġjuin": 8824,
      "31": 8825,
      "ĠâĢĭ": 8826,
      "View": 8827,
      "Ġmix": 8828,
      "ĠhÃ©r": 8829,
      "positions": 8830,
      "ĠNi": 8831,
      "ĠadaptÃ©e": 8832,
      "exique": 8833,
      "Ã´tel": 8834,
      "Ġlitres": 8835,
      "interprÃ©": 8836,
      "ĠdÃ©marrer": 8837,
      "iante": 8838,
      "pare": 8839,
      "Ġgasp": 8840,
      "Ã©motion": 8841,
      "ked": 8842,
      "Ġbranche": 8843,
      "ĠrÃ©cep": 8844,
      "Ġremer": 8845,
      "ĠamÃ©ricaines": 8846,
      "Ġsignificatifs": 8847,
      "ĠavancÃ©e": 8848,
      "Println": 8849,
      "Ġmodule": 8850,
      "ĠsÃ©curisÃ©": 8851,
      "ĠsÃ©parer": 8852,
      "ausse": 8853,
      "Ġdrogue": 8854,
      "SÃ»r": 8855,
      "orange": 8856,
      "assez": 8857,
      "ĠÃ©cologique": 8858,
      "ĠdÃ©finit": 8859,
      "ĠrÃ©glementation": 8860,
      "ĠrÃ©cupÃ©": 8861,
      "LTK": 8862,
      "Ġfaisait": 8863,
      "ĠgÃ©nÃ©rÃ©e": 8864,
      "65": 8865,
      "Emp": 8866,
      "ene": 8867,
      "sim": 8868,
      "Ġmodes": 8869,
      "ĠOR": 8870,
      "Ġaccompagn": 8871,
      "tinÃ©raire": 8872,
      "Ġclause": 8873,
      "Ġtemporaire": 8874,
      "34": 8875,
      "Ġdivisible": 8876,
      "intensitÃ©": 8877,
      "ySQL": 8878,
      "fre": 8879,
      "Ġcoute": 8880,
      "atch": 8881,
      "Ġdimension": 8882,
      "osÃ©es": 8883,
      "ĠWh": 8884,
      "Ġphysiquement": 8885,
      "Ġforeach": 8886,
      "ĠFibonacci": 8887,
      "%.": 8888,
      "ĠchÃ´": 8889,
      "sives": 8890,
      "ĠÃ©cole": 8891,
      "ĠempÃªche": 8892,
      "ĠYouTube": 8893,
      "Ġcombustibles": 8894,
      ">\";": 8895,
      "ĠdÃ©pendent": 8896,
      "apparence": 8897,
      "29": 8898,
      "Ġlaver": 8899,
      "tains": 8900,
      "Ġintu": 8901,
      "Ġdevise": 8902,
      "Ġ2022": 8903,
      "amentalement": 8904,
      "Ġreproduire": 8905,
      "aul": 8906,
      "onnÃ©": 8907,
      "oupez": 8908,
      "crit": 8909,
      "Ġliquides": 8910,
      "Ġfluide": 8911,
      "Ġincroyablement": 8912,
      "ĠâĢĭâĢĭ": 8913,
      "ĠcommenÃ§ant": 8914,
      "Comm": 8915,
      "dium": 8916,
      "ĠVe": 8917,
      "Ġrestants": 8918,
      "Ġexpertise": 8919,
      "ĠrÃ©pertoire": 8920,
      "ĠHarry": 8921,
      "ĠEl": 8922,
      "Ġjouets": 8923,
      "Ġvoyelles": 8924,
      "Ġprivate": 8925,
      "Ġgenerate": 8926,
      "ĠTes": 8927,
      "Ġfinances": 8928,
      "onyme": 8929,
      "ĠCher": 8930,
      "ĠInst": 8931,
      "Ġsuivent": 8932,
      "Åĵuf": 8933,
      "ĠmÃ©mor": 8934,
      "Ġaccessibles": 8935,
      "automatisation": 8936,
      "cade": 8937,
      "ĠdÃ©cembre": 8938,
      "ĠTo": 8939,
      "Ġ#{": 8940,
      "Ġmalveill": 8941,
      "Ġ195": 8942,
      "ni": 8943,
      "ĠreflÃ©ter": 8944,
      "getElement": 8945,
      "Ġpersu": 8946,
      "ĠpersÃ©v": 8947,
      "Ġtire": 8948,
      "Ġexistant": 8949,
      "Ġhumide": 8950,
      "Ġrose": 8951,
      "Ġincap": 8952,
      "ĠqualitÃ©s": 8953,
      "Ġrecherchez": 8954,
      "Ġcivile": 8955,
      "Ġsouligner": 8956,
      "Ġtemporelle": 8957,
      "ĠIntÃ©g": 8958,
      "ĠSuper": 8959,
      "Ġseptembre": 8960,
      "Ġpist": 8961,
      "ĠÂ°": 8962,
      "Ġeffec": 8963,
      "ĠgarÃ§on": 8964,
      "Ġcircuit": 8965,
      "eries": 8966,
      "utilisateurs": 8967,
      "ĠrÃ©col": 8968,
      "Ġsuperficie": 8969,
      "Ġpanier": 8970,
      "ratique": 8971,
      "ĠTur": 8972,
      "occasion": 8973,
      "Ġpertinent": 8974,
      "incer": 8975,
      "ĠdÃ©lais": 8976,
      "cted": 8977,
      "Ġconsommer": 8978,
      "Ġpare": 8979,
      "Ġviennent": 8980,
      "ĠchÃ¨que": 8981,
      "active": 8982,
      "Ġtru": 8983,
      "Ġtraverser": 8984,
      "Ġreconnaiss": 8985,
      "Ġvivants": 8986,
      "Ġfleur": 8987,
      "jus": 8988,
      "Ġlaissant": 8989,
[...]
